// Gesture recognition model for Arduino Nano 33 BLE
// Auto-generated from TensorFlow Lite model
// Do not edit manually

#ifndef GESTURE_MODEL_H
#define GESTURE_MODEL_H

// Model data
const unsigned int gesture_model_len = 8072;
alignas(8) const unsigned char gesture_model[] = {

  0x20, 0x00, 0x00, 0x00, 0x54, 0x46, 0x4c, 0x33, 0x00, 0x00, 0x00, 0x00, 
  0x14, 0x00, 0x20, 0x00, 0x1c, 0x00, 0x18, 0x00, 0x14, 0x00, 0x10, 0x00, 
  0x0c, 0x00, 0x00, 0x00, 0x08, 0x00, 0x04, 0x00, 0x14, 0x00, 0x00, 0x00, 
  0x1c, 0x00, 0x00, 0x00, 0x88, 0x00, 0x00, 0x00, 0xe0, 0x00, 0x00, 0x00, 
  0xa8, 0x07, 0x00, 0x00, 0xb8, 0x07, 0x00, 0x00, 0xb0, 0x1e, 0x00, 0x00, 
  0x03, 0x00, 0x00, 0x00, 0x01, 0x00, 0x00, 0x00, 0x04, 0x00, 0x00, 0x00, 
  0xca, 0xf5, 0xff, 0xff, 0x0c, 0x00, 0x00, 0x00, 0x1c, 0x00, 0x00, 0x00, 
  0x3c, 0x00, 0x00, 0x00, 0x0f, 0x00, 0x00, 0x00, 0x73, 0x65, 0x72, 0x76, 
  0x69, 0x6e, 0x67, 0x5f, 0x64, 0x65, 0x66, 0x61, 0x75, 0x6c, 0x74, 0x00, 
  0x01, 0x00, 0x00, 0x00, 0x04, 0x00, 0x00, 0x00, 0x94, 0xff, 0xff, 0xff, 
  0x1a, 0x00, 0x00, 0x00, 0x04, 0x00, 0x00, 0x00, 0x08, 0x00, 0x00, 0x00, 
  0x6f, 0x75, 0x74, 0x70, 0x75, 0x74, 0x5f, 0x30, 0x00, 0x00, 0x00, 0x00, 
  0x01, 0x00, 0x00, 0x00, 0x04, 0x00, 0x00, 0x00, 0x1e, 0xf8, 0xff, 0xff, 
  0x04, 0x00, 0x00, 0x00, 0x0b, 0x00, 0x00, 0x00, 0x69, 0x6e, 0x70, 0x75, 
  0x74, 0x5f, 0x6c, 0x61, 0x79, 0x65, 0x72, 0x00, 0x02, 0x00, 0x00, 0x00, 
  0x34, 0x00, 0x00, 0x00, 0x04, 0x00, 0x00, 0x00, 0xdc, 0xff, 0xff, 0xff, 
  0x1d, 0x00, 0x00, 0x00, 0x04, 0x00, 0x00, 0x00, 0x13, 0x00, 0x00, 0x00, 
  0x43, 0x4f, 0x4e, 0x56, 0x45, 0x52, 0x53, 0x49, 0x4f, 0x4e, 0x5f, 0x4d, 
  0x45, 0x54, 0x41, 0x44, 0x41, 0x54, 0x41, 0x00, 0x08, 0x00, 0x0c, 0x00, 
  0x08, 0x00, 0x04, 0x00, 0x08, 0x00, 0x00, 0x00, 0x1c, 0x00, 0x00, 0x00, 
  0x04, 0x00, 0x00, 0x00, 0x13, 0x00, 0x00, 0x00, 0x6d, 0x69, 0x6e, 0x5f, 
  0x72, 0x75, 0x6e, 0x74, 0x69, 0x6d, 0x65, 0x5f, 0x76, 0x65, 0x72, 0x73, 
  0x69, 0x6f, 0x6e, 0x00, 0x1e, 0x00, 0x00, 0x00, 0xc4, 0x06, 0x00, 0x00, 
  0xbc, 0x06, 0x00, 0x00, 0xa8, 0x06, 0x00, 0x00, 0x8c, 0x06, 0x00, 0x00, 
  0x78, 0x06, 0x00, 0x00, 0x5c, 0x06, 0x00, 0x00, 0x40, 0x06, 0x00, 0x00, 
  0x0c, 0x06, 0x00, 0x00, 0x6c, 0x05, 0x00, 0x00, 0x1c, 0x05, 0x00, 0x00, 
  0x0c, 0x04, 0x00, 0x00, 0xbc, 0x03, 0x00, 0x00, 0x2c, 0x02, 0x00, 0x00, 
  0xfc, 0x01, 0x00, 0x00, 0xfc, 0x00, 0x00, 0x00, 0xf4, 0x00, 0x00, 0x00, 
  0xec, 0x00, 0x00, 0x00, 0xe4, 0x00, 0x00, 0x00, 0xdc, 0x00, 0x00, 0x00, 
  0xd4, 0x00, 0x00, 0x00, 0xcc, 0x00, 0x00, 0x00, 0xc4, 0x00, 0x00, 0x00, 
  0xbc, 0x00, 0x00, 0x00, 0xb4, 0x00, 0x00, 0x00, 0xac, 0x00, 0x00, 0x00, 
  0xa4, 0x00, 0x00, 0x00, 0x9c, 0x00, 0x00, 0x00, 0x94, 0x00, 0x00, 0x00, 
  0x74, 0x00, 0x00, 0x00, 0x04, 0x00, 0x00, 0x00, 0x0e, 0xf9, 0xff, 0xff, 
  0x04, 0x00, 0x00, 0x00, 0x60, 0x00, 0x00, 0x00, 0x0c, 0x00, 0x00, 0x00, 
  0x08, 0x00, 0x0e, 0x00, 0x08, 0x00, 0x04, 0x00, 0x08, 0x00, 0x00, 0x00, 
  0x10, 0x00, 0x00, 0x00, 0x28, 0x00, 0x00, 0x00, 0x00, 0x00, 0x06, 0x00, 
  0x08, 0x00, 0x04, 0x00, 0x06, 0x00, 0x00, 0x00, 0x04, 0x00, 0x00, 0x00, 
  0x01, 0x00, 0x00, 0x00, 0xeb, 0x03, 0x00, 0x00, 0x0c, 0x00, 0x18, 0x00, 
  0x14, 0x00, 0x10, 0x00, 0x0c, 0x00, 0x04, 0x00, 0x0c, 0x00, 0x00, 0x00, 
  0xb2, 0x1c, 0x07, 0xfb, 0x9b, 0x4e, 0xff, 0xc8, 0x02, 0x00, 0x00, 0x00, 
  0x02, 0x00, 0x00, 0x00, 0x04, 0x00, 0x00, 0x00, 0x06, 0x00, 0x00, 0x00, 
  0x32, 0x2e, 0x32, 0x30, 0x2e, 0x30, 0x00, 0x00, 0x7a, 0xf9, 0xff, 0xff, 
  0x04, 0x00, 0x00, 0x00, 0x10, 0x00, 0x00, 0x00, 0x31, 0x2e, 0x31, 0x34, 
  0x2e, 0x30, 0x00, 0x00, 0x00, 0x00, 0x00, 0x00, 0x00, 0x00, 0x00, 0x00, 
  0xf4, 0xe3, 0xff, 0xff, 0xf8, 0xe3, 0xff, 0xff, 0xfc, 0xe3, 0xff, 0xff, 
  0x00, 0xe4, 0xff, 0xff, 0x04, 0xe4, 0xff, 0xff, 0x08, 0xe4, 0xff, 0xff, 
  0x0c, 0xe4, 0xff, 0xff, 0x10, 0xe4, 0xff, 0xff, 0x14, 0xe4, 0xff, 0xff, 
  0x18, 0xe4, 0xff, 0xff, 0x1c, 0xe4, 0xff, 0xff, 0x20, 0xe4, 0xff, 0xff, 
  0x24, 0xe4, 0xff, 0xff, 0xca, 0xf9, 0xff, 0xff, 0x04, 0x00, 0x00, 0x00, 
  0xf0, 0x00, 0x00, 0x00, 0xc5, 0x20, 0x9b, 0x22, 0xd7, 0x29, 0x3c, 0x2a, 
  0xc6, 0x17, 0xf2, 0x04, 0x29, 0x38, 0x81, 0x0d, 0xfe, 0xef, 0x25, 0x32, 
  0xda, 0xe2, 0xc9, 0xd5, 0xc4, 0x38, 0xab, 0xd2, 0xeb, 0xcd, 0x7a, 0x78, 
  0x41, 0x1a, 0x41, 0xac, 0x62, 0xe5, 0x04, 0xef, 0x04, 0xb5, 0x25, 0x2e, 
  0xc6, 0xe8, 0x34, 0xb1, 0x5e, 0x58, 0x35, 0xe2, 0xcd, 0x72, 0x6b, 0xc6, 
  0x08, 0x4d, 0x0d, 0x7f, 0xb5, 0xd8, 0x03, 0x03, 0xf3, 0x1b, 0xd0, 0xfd, 
  0x08, 0x38, 0xba, 0x44, 0xf3, 0xf6, 0x15, 0x24, 0xc8, 0x7f, 0xfd, 0x1d, 
  0xe9, 0x1e, 0xe9, 0x1c, 0xfd, 0x1c, 0xd6, 0xd4, 0xfe, 0x61, 0xf5, 0x1a, 
  0xdd, 0x08, 0x2e, 0x81, 0x2e, 0xbd, 0x1c, 0xc6, 0xf7, 0xc0, 0x04, 0x0c, 
  0x01, 0xd6, 0x2c, 0xd1, 0xf5, 0xfe, 0xf4, 0xd4, 0xd1, 0xa0, 0x06, 0x21, 
  0x03, 0x2b, 0x23, 0x97, 0x7f, 0x2d, 0xea, 0x40, 0x3c, 0x01, 0x6f, 0xb5, 
  0xe9, 0xac, 0xe9, 0xf6, 0xfb, 0xd0, 0x23, 0xec, 0xd1, 0x25, 0x3a, 0xcd, 
  0x2d, 0xcd, 0x0e, 0xb9, 0x23, 0x49, 0xf5, 0xa1, 0x08, 0x26, 0xde, 0xaf, 
  0xc6, 0xc9, 0x3b, 0xd6, 0x16, 0xfb, 0xf2, 0xb5, 0x07, 0x15, 0x2b, 0xba, 
  0x44, 0xbc, 0x3e, 0x39, 0x1a, 0xe3, 0x7f, 0xdf, 0x75, 0xe0, 0x13, 0xd4, 
  0x51, 0x14, 0xcd, 0x21, 0xec, 0xdc, 0xdb, 0x63, 0xe2, 0xf4, 0x9d, 0xa5, 
  0x18, 0xd8, 0x36, 0x0d, 0xd4, 0x07, 0x27, 0x66, 0xa0, 0x31, 0x81, 0xfb, 
  0xfc, 0x9a, 0x4e, 0xd1, 0xf3, 0x3b, 0x35, 0xd7, 0x0b, 0xec, 0x5b, 0x34, 
  0xc1, 0x41, 0xf8, 0x9a, 0x7f, 0xcd, 0x01, 0x0d, 0x34, 0x31, 0x1a, 0x23, 
  0x28, 0x54, 0x37, 0xde, 0x72, 0x99, 0x0a, 0xf1, 0xa1, 0x60, 0x23, 0xaa, 
  0xcf, 0xe6, 0x13, 0x61, 0xc6, 0xfa, 0xff, 0xff, 0x04, 0x00, 0x00, 0x00, 
  0x20, 0x00, 0x00, 0x00, 0xf4, 0x00, 0x00, 0x00, 0x2c, 0x02, 0x00, 0x00, 
  0x04, 0x00, 0x00, 0x00, 0x51, 0xff, 0xff, 0xff, 0xb9, 0xfc, 0xff, 0xff, 
  0xdd, 0xfd, 0xff, 0xff, 0xd9, 0x01, 0x00, 0x00, 0x5f, 0xfe, 0xff, 0xff, 
  0xf2, 0xfa, 0xff, 0xff, 0x04, 0x00, 0x00, 0x00, 0x80, 0x01, 0x00, 0x00, 
  0xc6, 0x27, 0xad, 0xc2, 0x3f, 0xe7, 0x39, 0x42, 0xe5, 0x5d, 0xad, 0xfe, 
  0x1f, 0x07, 0x4b, 0x4a, 0xc4, 0x2c, 0x13, 0xda, 0x21, 0xa2, 0x14, 0x7f, 
  0x7c, 0x30, 0x16, 0xf1, 0x4b, 0x46, 0xee, 0x9a, 0x26, 0xca, 0x29, 0xfb, 
  0x16, 0x7f, 0xec, 0x98, 0x2a, 0x32, 0xcd, 0xef, 0xdf, 0x23, 0x02, 0x26, 
  0xcc, 0xf8, 0xd1, 0x08, 0x4b, 0x2f, 0xed, 0x1c, 0x19, 0xda, 0x02, 0xef, 
  0xd7, 0x7f, 0xde, 0x28, 0xd3, 0xf2, 0xee, 0xc0, 0x46, 0x74, 0xd4, 0x13, 
  0x03, 0x7f, 0xea, 0x12, 0x9b, 0x36, 0x9c, 0x31, 0x5a, 0x49, 0xd1, 0xef, 
  0xd3, 0xce, 0xd7, 0x0d, 0x53, 0x6b, 0xd0, 0x13, 0x98, 0xa4, 0xa7, 0x38, 
  0x91, 0xe2, 0xc5, 0xfe, 0x38, 0x91, 0x6b, 0xa6, 0xe9, 0xd2, 0xf7, 0x68, 
  0x0b, 0x93, 0x18, 0x09, 0xb8, 0xa1, 0x39, 0x1d, 0x0f, 0xa3, 0x7f, 0x1c, 
  0x7f, 0xd6, 0xe4, 0xe6, 0xb4, 0x08, 0x97, 0xd1, 0x06, 0x6e, 0xb2, 0x04, 
  0xf7, 0x19, 0x8e, 0x09, 0x64, 0x09, 0xfd, 0xbf, 0xdc, 0x9a, 0xd8, 0x19, 
  0xfa, 0x21, 0xe9, 0x64, 0x22, 0xbb, 0x1b, 0x11, 0xe5, 0x5a, 0x54, 0x7f, 
  0x66, 0xde, 0x39, 0x61, 0xbb, 0xe9, 0x45, 0x5d, 0x08, 0x9e, 0xf4, 0x45, 
  0xd5, 0xf1, 0x8c, 0xa3, 0xe3, 0xad, 0x4e, 0x24, 0x93, 0xed, 0x83, 0x9a, 
  0x47, 0x3c, 0x02, 0x1c, 0x81, 0x10, 0xf7, 0x91, 0xfb, 0x41, 0xe7, 0x11, 
  0xbd, 0xc3, 0x39, 0xdf, 0x04, 0x41, 0x9f, 0xfc, 0x52, 0x08, 0x4c, 0x57, 
  0xc4, 0x6d, 0xcb, 0x09, 0x13, 0x92, 0x6b, 0x7f, 0x12, 0x3e, 0xa2, 0xee, 
  0xf6, 0xef, 0x25, 0x33, 0xdd, 0xdf, 0xfd, 0xcf, 0xe4, 0x07, 0x4f, 0x7f, 
  0x20, 0xc6, 0x02, 0xea, 0xd9, 0xf0, 0x11, 0x08, 0x0a, 0xed, 0x09, 0x16, 
  0xfe, 0xf4, 0xef, 0xe9, 0x2f, 0x0c, 0x29, 0x65, 0xdb, 0x28, 0xea, 0x34, 
  0x47, 0xf7, 0x7f, 0x33, 0xf0, 0x43, 0xf5, 0xde, 0x22, 0x11, 0x00, 0xeb, 
  0x7b, 0x44, 0x8c, 0xb6, 0x24, 0x9b, 0x81, 0xe0, 0xba, 0x3d, 0x9f, 0xb9, 
  0x45, 0xc5, 0xaa, 0xc3, 0x54, 0x51, 0xa2, 0xda, 0x81, 0x9e, 0xa5, 0x55, 
  0xfe, 0x30, 0xef, 0xc6, 0xc7, 0xe6, 0xa5, 0x02, 0xf8, 0xac, 0x12, 0xe5, 
  0xbd, 0x2e, 0x81, 0x01, 0xd1, 0x3b, 0xc0, 0xe3, 0xdc, 0x10, 0xb3, 0xe1, 
  0x21, 0x20, 0x6a, 0x31, 0x2d, 0xe9, 0xce, 0xd8, 0xe9, 0xe9, 0x04, 0x2c, 
  0x06, 0x3d, 0xe9, 0xf0, 0xe4, 0x0e, 0x2d, 0x7f, 0x05, 0xe9, 0xe2, 0xdc, 
  0x6f, 0xfd, 0x58, 0x22, 0x32, 0x1d, 0x8d, 0x25, 0x4f, 0xa9, 0x6f, 0x7f, 
  0xaa, 0x69, 0x93, 0xbd, 0x03, 0x3a, 0x2d, 0x56, 0x15, 0x4b, 0xc0, 0x88, 
  0x14, 0x4c, 0xbb, 0xff, 0xf8, 0xd7, 0x7f, 0x13, 0xd2, 0x26, 0x02, 0x0c, 
  0x2d, 0x10, 0x52, 0x39, 0xeb, 0x11, 0xe3, 0xef, 0x0f, 0xda, 0x7f, 0x44, 
  0x7e, 0xfc, 0xff, 0xff, 0x04, 0x00, 0x00, 0x00, 0x40, 0x00, 0x00, 0x00, 
  0x5b, 0xf8, 0xff, 0xff, 0x14, 0xf5, 0xff, 0xff, 0x6f, 0x04, 0x00, 0x00, 
  0xc0, 0x04, 0x00, 0x00, 0xb9, 0x0f, 0x00, 0x00, 0x72, 0x0f, 0x00, 0x00, 
  0xcf, 0xed, 0xff, 0xff, 0x7b, 0x21, 0x00, 0x00, 0x9c, 0x01, 0x00, 0x00, 
  0x82, 0x00, 0x00, 0x00, 0x60, 0xef, 0xff, 0xff, 0x25, 0x1f, 0x00, 0x00, 
  0xcc, 0x1d, 0x00, 0x00, 0xda, 0xfb, 0xff, 0xff, 0xab, 0xfc, 0xff, 0xff, 
  0x1d, 0xed, 0xff, 0xff, 0xca, 0xfc, 0xff, 0xff, 0x04, 0x00, 0x00, 0x00, 
  0x00, 0x01, 0x00, 0x00, 0xad, 0xa5, 0xa1, 0x07, 0x7f, 0xf6, 0x6d, 0xdc, 
  0x14, 0x73, 0xf0, 0xa4, 0x3f, 0x60, 0x50, 0x3f, 0x22, 0x2d, 0x5e, 0x1a, 
  0xd3, 0x0c, 0x61, 0xbf, 0x95, 0x2a, 0x7f, 0xc2, 0x0e, 0xc1, 0xb9, 0x76, 
  0x1f, 0x71, 0x0c, 0xc2, 0xe1, 0xe0, 0x29, 0xc7, 0x28, 0x37, 0xf7, 0x81, 
  0xf2, 0x6e, 0x6b, 0x60, 0xc1, 0x6b, 0x34, 0x33, 0x25, 0x2a, 0x03, 0x81, 
  0xa6, 0x9b, 0x51, 0xea, 0x32, 0x42, 0x29, 0x4b, 0x7f, 0xfa, 0x6a, 0x2a, 
  0xd6, 0x06, 0x51, 0x40, 0xb1, 0xee, 0x55, 0xce, 0xd4, 0x09, 0x9b, 0x3e, 
  0xa6, 0xf2, 0xfb, 0xcc, 0xc9, 0x96, 0x73, 0xb1, 0xab, 0x81, 0xf0, 0x7e, 
  0xcc, 0x23, 0x96, 0x2f, 0xf4, 0xe2, 0xe6, 0x6c, 0xa0, 0x60, 0xad, 0x90, 
  0x0f, 0xe7, 0xa8, 0x17, 0x6e, 0x36, 0x7f, 0x1b, 0x22, 0x7c, 0x02, 0x53, 
  0x2a, 0x3a, 0xdc, 0xbb, 0x47, 0x13, 0xe3, 0xc8, 0x16, 0xec, 0x7f, 0xce, 
  0x6c, 0x5e, 0x3b, 0x59, 0x18, 0x63, 0x1e, 0x6c, 0x8e, 0xce, 0xfd, 0x7f, 
  0x71, 0xa7, 0x8c, 0x2d, 0xcd, 0x2d, 0x7f, 0xc2, 0xb8, 0xc7, 0x04, 0x51, 
  0x5f, 0x42, 0xa2, 0xca, 0x38, 0x28, 0x4b, 0xaa, 0x66, 0xc7, 0x1c, 0xfa, 
  0xf4, 0xe5, 0xe9, 0x7f, 0xad, 0x09, 0x32, 0xd9, 0x53, 0xda, 0xc8, 0x55, 
  0x01, 0x5d, 0xd4, 0x5f, 0xbb, 0x7f, 0x20, 0xe4, 0xdb, 0xd1, 0xb7, 0x0d, 
  0x62, 0x3b, 0x01, 0xa5, 0x7f, 0x0b, 0xd5, 0x7c, 0x28, 0x74, 0x48, 0xb7, 
  0x9a, 0x0d, 0x0e, 0x55, 0x41, 0x3b, 0xa4, 0x1f, 0x4d, 0xa1, 0x91, 0xfe, 
  0x7f, 0xcc, 0x5c, 0x53, 0x99, 0x6a, 0xf6, 0xba, 0x22, 0xe5, 0xe5, 0x6b, 
  0x47, 0x2d, 0x0a, 0x56, 0x18, 0x01, 0x7f, 0xc1, 0x1d, 0x61, 0xea, 0x19, 
  0xe5, 0x35, 0x14, 0x24, 0x8a, 0x15, 0xa6, 0xf4, 0xc8, 0x08, 0xd8, 0xdc, 
  0xc0, 0xa7, 0xed, 0x3a, 0xa8, 0x81, 0xb7, 0x22, 0xd6, 0xfd, 0xff, 0xff, 
  0x04, 0x00, 0x00, 0x00, 0x40, 0x00, 0x00, 0x00, 0x6e, 0x08, 0x00, 0x00, 
  0xfa, 0xfa, 0xff, 0xff, 0x4d, 0x02, 0x00, 0x00, 0x26, 0xf5, 0xff, 0xff, 
  0x52, 0x03, 0x00, 0x00, 0x00, 0x00, 0x00, 0x00, 0x06, 0x05, 0x00, 0x00, 
  0xa0, 0x00, 0x00, 0x00, 0x2d, 0x02, 0x00, 0x00, 0x43, 0x02, 0x00, 0x00, 
  0xcc, 0xff, 0xff, 0xff, 0xc4, 0x0b, 0x00, 0x00, 0x1c, 0x01, 0x00, 0x00, 
  0x07, 0x08, 0x00, 0x00, 0x83, 0xfb, 0xff, 0xff, 0x1c, 0xfc, 0xff, 0xff, 
  0x22, 0xfe, 0xff, 0xff, 0x04, 0x00, 0x00, 0x00, 0x90, 0x00, 0x00, 0x00, 
  0x18, 0x95, 0xa9, 0xbf, 0x82, 0x28, 0xdb, 0x81, 0x42, 0xeb, 0x07, 0x29, 
  0x2d, 0x1b, 0x87, 0x95, 0x81, 0xcc, 0xe3, 0x44, 0x85, 0x32, 0x44, 0x1c, 
  0x23, 0x8c, 0x9b, 0x62, 0x18, 0x88, 0x38, 0xd9, 0x6f, 0xa8, 0x43, 0xbc, 
  0xca, 0x04, 0xc2, 0xf0, 0x81, 0x0b, 0x8f, 0xbf, 0x0f, 0x40, 0x47, 0xdf, 
  0x51, 0xda, 0x4e, 0xb0, 0x95, 0xe1, 0x2c, 0x18, 0x81, 0x56, 0x1a, 0x1d, 
  0xc6, 0xa3, 0x4e, 0x49, 0x27, 0x50, 0x7f, 0x17, 0x1a, 0x8b, 0xc3, 0xd1, 
  0x09, 0x83, 0xeb, 0xbe, 0x43, 0x1a, 0x59, 0xda, 0x89, 0xec, 0xc3, 0xdb, 
  0xbe, 0xf7, 0x55, 0x14, 0x28, 0x9e, 0xbd, 0x55, 0x3c, 0x81, 0x1e, 0x39, 
  0x17, 0xc7, 0xc9, 0xdf, 0xea, 0x22, 0xbb, 0xa4, 0x0e, 0xb4, 0x24, 0x81, 
  0xef, 0x5a, 0xf2, 0x2a, 0x8d, 0x12, 0xc0, 0xa6, 0x42, 0x29, 0x81, 0x8f, 
  0x4a, 0xdc, 0x6f, 0xe5, 0x31, 0x14, 0x23, 0x1d, 0xa1, 0xce, 0x2f, 0x38, 
  0xfa, 0xda, 0xab, 0xfb, 0x17, 0x53, 0xed, 0xdb, 0x81, 0xaf, 0x09, 0x32, 
  0xbe, 0xfe, 0xff, 0xff, 0x04, 0x00, 0x00, 0x00, 0x24, 0x00, 0x00, 0x00, 
  0x3e, 0x09, 0x00, 0x00, 0x7a, 0xf7, 0xff, 0xff, 0xe0, 0x01, 0x00, 0x00, 
  0x2c, 0xfe, 0xff, 0xff, 0x8b, 0xe9, 0xff, 0xff, 0x3d, 0xfe, 0xff, 0xff, 
  0xaf, 0x03, 0x00, 0x00, 0x92, 0x06, 0x00, 0x00, 0xce, 0x04, 0x00, 0x00, 
  0xee, 0xfe, 0xff, 0xff, 0x04, 0x00, 0x00, 0x00, 0x0c, 0x00, 0x00, 0x00, 
  0xff, 0xff, 0xff, 0xff, 0x3c, 0x00, 0x00, 0x00, 0x10, 0x00, 0x00, 0x00, 
  0x06, 0xff, 0xff, 0xff, 0x04, 0x00, 0x00, 0x00, 0x0c, 0x00, 0x00, 0x00, 
  0xff, 0xff, 0xff, 0xff, 0x3c, 0x00, 0x00, 0x00, 0x08, 0x00, 0x00, 0x00, 
  0x1e, 0xff, 0xff, 0xff, 0x04, 0x00, 0x00, 0x00, 0x04, 0x00, 0x00, 0x00, 
  0x01, 0x00, 0x00, 0x00, 0x2e, 0xff, 0xff, 0xff, 0x04, 0x00, 0x00, 0x00, 
  0x0c, 0x00, 0x00, 0x00, 0xff, 0xff, 0xff, 0xff, 0x78, 0x00, 0x00, 0x00, 
  0x08, 0x00, 0x00, 0x00, 0x46, 0xff, 0xff, 0xff, 0x04, 0x00, 0x00, 0x00, 
  0x04, 0x00, 0x00, 0x00, 0xfd, 0xff, 0xff, 0xff, 0xb4, 0xe9, 0xff, 0xff, 
  0xb8, 0xe9, 0xff, 0xff, 0x0f, 0x00, 0x00, 0x00, 0x4d, 0x4c, 0x49, 0x52, 
  0x20, 0x43, 0x6f, 0x6e, 0x76, 0x65, 0x72, 0x74, 0x65, 0x64, 0x2e, 0x00, 
  0x01, 0x00, 0x00, 0x00, 0x14, 0x00, 0x00, 0x00, 0x00, 0x00, 0x0e, 0x00, 
  0x18, 0x00, 0x14, 0x00, 0x10, 0x00, 0x0c, 0x00, 0x08, 0x00, 0x04, 0x00, 
  0x0e, 0x00, 0x00, 0x00, 0x14, 0x00, 0x00, 0x00, 0x1c, 0x00, 0x00, 0x00, 
  0x34, 0x03, 0x00, 0x00, 0x38, 0x03, 0x00, 0x00, 0x3c, 0x03, 0x00, 0x00, 
  0x04, 0x00, 0x00, 0x00, 0x6d, 0x61, 0x69, 0x6e, 0x00, 0x00, 0x00, 0x00, 
  0x0d, 0x00, 0x00, 0x00, 0xec, 0x02, 0x00, 0x00, 0x8c, 0x02, 0x00, 0x00, 
  0x54, 0x02, 0x00, 0x00, 0x18, 0x02, 0x00, 0x00, 0xc4, 0x01, 0x00, 0x00, 
  0x8c, 0x01, 0x00, 0x00, 0x5c, 0x01, 0x00, 0x00, 0x18, 0x01, 0x00, 0x00, 
  0xf0, 0x00, 0x00, 0x00, 0xbc, 0x00, 0x00, 0x00, 0x78, 0x00, 0x00, 0x00, 
  0x40, 0x00, 0x00, 0x00, 0x04, 0x00, 0x00, 0x00, 0x6e, 0xfe, 0xff, 0xff, 
  0x1c, 0x00, 0x00, 0x00, 0x00, 0x00, 0x00, 0x09, 0x1c, 0x00, 0x00, 0x00, 
  0x20, 0x00, 0x00, 0x00, 0x06, 0x00, 0x00, 0x00, 0x00, 0x00, 0x06, 0x00, 
  0x08, 0x00, 0x04, 0x00, 0x06, 0x00, 0x00, 0x00, 0x00, 0x00, 0x80, 0x3f, 
  0x01, 0x00, 0x00, 0x00, 0x1a, 0x00, 0x00, 0x00, 0x01, 0x00, 0x00, 0x00, 
  0x19, 0x00, 0x00, 0x00, 0xea, 0xfd, 0xff, 0xff, 0x14, 0x00, 0x00, 0x00, 
  0x00, 0x00, 0x00, 0x08, 0x10, 0x00, 0x00, 0x00, 0x14, 0x00, 0x00, 0x00, 
  0x05, 0x00, 0x00, 0x00, 0x94, 0xea, 0xff, 0xff, 0x01, 0x00, 0x00, 0x00, 
  0x19, 0x00, 0x00, 0x00, 0x03, 0x00, 0x00, 0x00, 0x18, 0x00, 0x00, 0x00, 
  0x07, 0x00, 0x00, 0x00, 0x06, 0x00, 0x00, 0x00, 0xda, 0xfe, 0xff, 0xff, 
  0x1c, 0x00, 0x00, 0x00, 0x00, 0x00, 0x00, 0x08, 0x1c, 0x00, 0x00, 0x00, 
  0x20, 0x00, 0x00, 0x00, 0x05, 0x00, 0x00, 0x00, 0x00, 0x00, 0x06, 0x00, 
  0x08, 0x00, 0x07, 0x00, 0x06, 0x00, 0x00, 0x00, 0x00, 0x00, 0x00, 0x01, 
  0x01, 0x00, 0x00, 0x00, 0x18, 0x00, 0x00, 0x00, 0x03, 0x00, 0x00, 0x00, 
  0x17, 0x00, 0x00, 0x00, 0x09, 0x00, 0x00, 0x00, 0x08, 0x00, 0x00, 0x00, 
  0x5e, 0xfe, 0xff, 0xff, 0x14, 0x00, 0x00, 0x00, 0x00, 0x00, 0x00, 0x1b, 
  0x10, 0x00, 0x00, 0x00, 0x14, 0x00, 0x00, 0x00, 0x04, 0x00, 0x00, 0x00, 
  0x08, 0xeb, 0xff, 0xff, 0x01, 0x00, 0x00, 0x00, 0x17, 0x00, 0x00, 0x00, 
  0x02, 0x00, 0x00, 0x00, 0x16, 0x00, 0x00, 0x00, 0x03, 0x00, 0x00, 0x00, 
  0xbe, 0xfe, 0xff, 0xff, 0x0c, 0x00, 0x00, 0x00, 0x10, 0x00, 0x00, 0x00, 
  0x02, 0x00, 0x00, 0x00, 0x01, 0x00, 0x00, 0x00, 0x16, 0x00, 0x00, 0x00, 
  0x02, 0x00, 0x00, 0x00, 0x15, 0x00, 0x00, 0x00, 0x05, 0x00, 0x00, 0x00, 
  0xb2, 0xfe, 0xff, 0xff, 0x14, 0x00, 0x00, 0x00, 0x00, 0x00, 0x00, 0x01, 
  0x1c, 0x00, 0x00, 0x00, 0x20, 0x00, 0x00, 0x00, 0x01, 0x00, 0x00, 0x00, 
  0xa4, 0xfe, 0xff, 0xff, 0x00, 0x00, 0x00, 0x01, 0x01, 0x00, 0x00, 0x00, 
  0x01, 0x00, 0x00, 0x00, 0x01, 0x00, 0x00, 0x00, 0x15, 0x00, 0x00, 0x00, 
  0x03, 0x00, 0x00, 0x00, 0x14, 0x00, 0x00, 0x00, 0x0b, 0x00, 0x00, 0x00, 
  0x0a, 0x00, 0x00, 0x00, 0x96, 0xfe, 0xff, 0xff, 0x10, 0x00, 0x00, 0x00, 
  0x00, 0x00, 0x00, 0x34, 0x0c, 0x00, 0x00, 0x00, 0x10, 0x00, 0x00, 0x00, 
  0x98, 0xeb, 0xff, 0xff, 0x01, 0x00, 0x00, 0x00, 0x14, 0x00, 0x00, 0x00, 
  0x02, 0x00, 0x00, 0x00, 0x13, 0x00, 0x00, 0x00, 0x01, 0x00, 0x00, 0x00, 
  0x4e, 0xff, 0xff, 0xff, 0x0c, 0x00, 0x00, 0x00, 0x10, 0x00, 0x00, 0x00, 
  0x02, 0x00, 0x00, 0x00, 0x01, 0x00, 0x00, 0x00, 0x13, 0x00, 0x00, 0x00, 
  0x02, 0x00, 0x00, 0x00, 0x12, 0x00, 0x00, 0x00, 0x04, 0x00, 0x00, 0x00, 
  0x00, 0x00, 0x0e, 0x00, 0x1a, 0x00, 0x14, 0x00, 0x10, 0x00, 0x0c, 0x00, 
  0x0b, 0x00, 0x04, 0x00, 0x0e, 0x00, 0x00, 0x00, 0x24, 0x00, 0x00, 0x00, 
  0x00, 0x00, 0x00, 0x05, 0x34, 0x00, 0x00, 0x00, 0x38, 0x00, 0x00, 0x00, 
  0x03, 0x00, 0x00, 0x00, 0x00, 0x00, 0x0e, 0x00, 0x18, 0x00, 0x17, 0x00, 
  0x10, 0x00, 0x0c, 0x00, 0x08, 0x00, 0x04, 0x00, 0x0e, 0x00, 0x00, 0x00, 
  0x01, 0x00, 0x00, 0x00, 0x02, 0x00, 0x00, 0x00, 0x01, 0x00, 0x00, 0x00, 
  0x02, 0x00, 0x00, 0x00, 0x00, 0x00, 0x00, 0x01, 0x01, 0x00, 0x00, 0x00, 
  0x12, 0x00, 0x00, 0x00, 0x01, 0x00, 0x00, 0x00, 0x11, 0x00, 0x00, 0x00, 
  0x46, 0xff, 0xff, 0xff, 0x10, 0x00, 0x00, 0x00, 0x00, 0x00, 0x00, 0x34, 
  0x0c, 0x00, 0x00, 0x00, 0x10, 0x00, 0x00, 0x00, 0x48, 0xec, 0xff, 0xff, 
  0x01, 0x00, 0x00, 0x00, 0x11, 0x00, 0x00, 0x00, 0x02, 0x00, 0x00, 0x00, 
  0x10, 0x00, 0x00, 0x00, 0x03, 0x00, 0x00, 0x00, 0x00, 0x00, 0x0a, 0x00, 
  0x10, 0x00, 0x0c, 0x00, 0x08, 0x00, 0x04, 0x00, 0x0a, 0x00, 0x00, 0x00, 
  0x0c, 0x00, 0x00, 0x00, 0x10, 0x00, 0x00, 0x00, 0x02, 0x00, 0x00, 0x00, 
  0x01, 0x00, 0x00, 0x00, 0x10, 0x00, 0x00, 0x00, 0x02, 0x00, 0x00, 0x00, 
  0x0f, 0x00, 0x00, 0x00, 0x02, 0x00, 0x00, 0x00, 0x00, 0x00, 0x0e, 0x00, 
  0x18, 0x00, 0x14, 0x00, 0x10, 0x00, 0x0c, 0x00, 0x0b, 0x00, 0x04, 0x00, 
  0x0e, 0x00, 0x00, 0x00, 0x20, 0x00, 0x00, 0x00, 0x00, 0x00, 0x00, 0x01, 
  0x28, 0x00, 0x00, 0x00, 0x2c, 0x00, 0x00, 0x00, 0x01, 0x00, 0x00, 0x00, 
  0x0c, 0x00, 0x10, 0x00, 0x00, 0x00, 0x0c, 0x00, 0x08, 0x00, 0x07, 0x00, 
  0x0c, 0x00, 0x00, 0x00, 0x00, 0x00, 0x00, 0x01, 0x01, 0x00, 0x00, 0x00, 
  0x01, 0x00, 0x00, 0x00, 0x01, 0x00, 0x00, 0x00, 0x0f, 0x00, 0x00, 0x00, 
  0x03, 0x00, 0x00, 0x00, 0x0e, 0x00, 0x00, 0x00, 0x0d, 0x00, 0x00, 0x00, 
  0x0c, 0x00, 0x00, 0x00, 0x00, 0x00, 0x0e, 0x00, 0x14, 0x00, 0x00, 0x00, 
  0x10, 0x00, 0x0c, 0x00, 0x0b, 0x00, 0x04, 0x00, 0x0e, 0x00, 0x00, 0x00, 
  0x10, 0x00, 0x00, 0x00, 0x00, 0x00, 0x00, 0x34, 0x0c, 0x00, 0x00, 0x00, 
  0x10, 0x00, 0x00, 0x00, 0x10, 0xed, 0xff, 0xff, 0x01, 0x00, 0x00, 0x00, 
  0x0e, 0x00, 0x00, 0x00, 0x02, 0x00, 0x00, 0x00, 0x00, 0x00, 0x00, 0x00, 
  0x01, 0x00, 0x00, 0x00, 0x01, 0x00, 0x00, 0x00, 0x1a, 0x00, 0x00, 0x00, 
  0x01, 0x00, 0x00, 0x00, 0x00, 0x00, 0x00, 0x00, 0x1b, 0x00, 0x00, 0x00, 
  0xfc, 0x12, 0x00, 0x00, 0xa4, 0x12, 0x00, 0x00, 0x4c, 0x12, 0x00, 0x00, 
  0x10, 0x12, 0x00, 0x00, 0xd0, 0x11, 0x00, 0x00, 0x90, 0x11, 0x00, 0x00, 
  0xcc, 0x10, 0x00, 0x00, 0x08, 0x10, 0x00, 0x00, 0xf4, 0x0e, 0x00, 0x00, 
  0xd8, 0x0d, 0x00, 0x00, 0xc4, 0x0c, 0x00, 0x00, 0xa0, 0x0b, 0x00, 0x00, 
  0xec, 0x0a, 0x00, 0x00, 0x28, 0x0a, 0x00, 0x00, 0x84, 0x09, 0x00, 0x00, 
  0x40, 0x08, 0x00, 0x00, 0x28, 0x07, 0x00, 0x00, 0x88, 0x06, 0x00, 0x00, 
  0xf4, 0x05, 0x00, 0x00, 0x5c, 0x05, 0x00, 0x00, 0xbc, 0x04, 0x00, 0x00, 
  0x78, 0x03, 0x00, 0x00, 0x60, 0x02, 0x00, 0x00, 0xd8, 0x01, 0x00, 0x00, 
  0x1c, 0x01, 0x00, 0x00, 0x80, 0x00, 0x00, 0x00, 0x04, 0x00, 0x00, 0x00, 
  0x86, 0xed, 0xff, 0xff, 0x00, 0x00, 0x00, 0x01, 0x18, 0x00, 0x00, 0x00, 
  0x20, 0x00, 0x00, 0x00, 0x3c, 0x00, 0x00, 0x00, 0x1b, 0x00, 0x00, 0x00, 
  0x00, 0x00, 0x00, 0x09, 0x50, 0x00, 0x00, 0x00, 0x02, 0x00, 0x00, 0x00, 
  0xff, 0xff, 0xff, 0xff, 0x09, 0x00, 0x00, 0x00, 0x6c, 0xed, 0xff, 0xff, 
  0x08, 0x00, 0x00, 0x00, 0x10, 0x00, 0x00, 0x00, 0x01, 0x00, 0x00, 0x00, 
  0x80, 0xff, 0xff, 0xff, 0xff, 0xff, 0xff, 0xff, 0x01, 0x00, 0x00, 0x00, 
  0x00, 0x00, 0x80, 0x3b, 0x1b, 0x00, 0x00, 0x00, 0x53, 0x74, 0x61, 0x74, 
  0x65, 0x66, 0x75, 0x6c, 0x50, 0x61, 0x72, 0x74, 0x69, 0x74, 0x69, 0x6f, 
  0x6e, 0x65, 0x64, 0x43, 0x61, 0x6c, 0x6c, 0x5f, 0x31, 0x3a, 0x30, 0x00, 
  0x02, 0x00, 0x00, 0x00, 0x01, 0x00, 0x00, 0x00, 0x09, 0x00, 0x00, 0x00, 
  0xfe, 0xed, 0xff, 0xff, 0x00, 0x00, 0x00, 0x01, 0x18, 0x00, 0x00, 0x00, 
  0x20, 0x00, 0x00, 0x00, 0x3c, 0x00, 0x00, 0x00, 0x1a, 0x00, 0x00, 0x00, 
  0x00, 0x00, 0x00, 0x09, 0x70, 0x00, 0x00, 0x00, 0x02, 0x00, 0x00, 0x00, 
  0xff, 0xff, 0xff, 0xff, 0x09, 0x00, 0x00, 0x00, 0xe4, 0xed, 0xff, 0xff, 
  0x08, 0x00, 0x00, 0x00, 0x10, 0x00, 0x00, 0x00, 0x01, 0x00, 0x00, 0x00, 
  0x0e, 0x00, 0x00, 0x00, 0x00, 0x00, 0x00, 0x00, 0x01, 0x00, 0x00, 0x00, 
  0xe3, 0x00, 0x63, 0x3d, 0x3a, 0x00, 0x00, 0x00, 0x73, 0x65, 0x71, 0x75, 
  0x65, 0x6e, 0x74, 0x69, 0x61, 0x6c, 0x5f, 0x31, 0x2f, 0x6f, 0x75, 0x74, 
  0x70, 0x75, 0x74, 0x5f, 0x31, 0x2f, 0x4d, 0x61, 0x74, 0x4d, 0x75, 0x6c, 
  0x3b, 0x73, 0x65, 0x71, 0x75, 0x65, 0x6e, 0x74, 0x69, 0x61, 0x6c, 0x5f, 
  0x31, 0x2f, 0x6f, 0x75, 0x74, 0x70, 0x75, 0x74, 0x5f, 0x31, 0x2f, 0x42, 
  0x69, 0x61, 0x73, 0x41, 0x64, 0x64, 0x00, 0x00, 0x02, 0x00, 0x00, 0x00, 
  0x01, 0x00, 0x00, 0x00, 0x09, 0x00, 0x00, 0x00, 0x96, 0xee, 0xff, 0xff, 
  0x00, 0x00, 0x00, 0x01, 0x18, 0x00, 0x00, 0x00, 0x20, 0x00, 0x00, 0x00, 
  0x3c, 0x00, 0x00, 0x00, 0x19, 0x00, 0x00, 0x00, 0x00, 0x00, 0x00, 0x09, 
  0x90, 0x00, 0x00, 0x00, 0x02, 0x00, 0x00, 0x00, 0xff, 0xff, 0xff, 0xff, 
  0x10, 0x00, 0x00, 0x00, 0x7c, 0xee, 0xff, 0xff, 0x08, 0x00, 0x00, 0x00, 
  0x10, 0x00, 0x00, 0x00, 0x01, 0x00, 0x00, 0x00, 0x80, 0xff, 0xff, 0xff, 
  0xff, 0xff, 0xff, 0xff, 0x01, 0x00, 0x00, 0x00, 0x16, 0xaf, 0xbf, 0x3c, 
  0x58, 0x00, 0x00, 0x00, 0x73, 0x65, 0x71, 0x75, 0x65, 0x6e, 0x74, 0x69, 
  0x61, 0x6c, 0x5f, 0x31, 0x2f, 0x64, 0x65, 0x6e, 0x73, 0x65, 0x5f, 0x31, 
  0x5f, 0x31, 0x2f, 0x4d, 0x61, 0x74, 0x4d, 0x75, 0x6c, 0x3b, 0x73, 0x65, 
  0x71, 0x75, 0x65, 0x6e, 0x74, 0x69, 0x61, 0x6c, 0x5f, 0x31, 0x2f, 0x64, 
  0x65, 0x6e, 0x73, 0x65, 0x5f, 0x31, 0x5f, 0x31, 0x2f, 0x52, 0x65, 0x6c, 
  0x75, 0x3b, 0x73, 0x65, 0x71, 0x75, 0x65, 0x6e, 0x74, 0x69, 0x61, 0x6c, 
  0x5f, 0x31, 0x2f, 0x64, 0x65, 0x6e, 0x73, 0x65, 0x5f, 0x31, 0x5f, 0x31, 
  0x2f, 0x42, 0x69, 0x61, 0x73, 0x41, 0x64, 0x64, 0x00, 0x00, 0x00, 0x00, 
  0x02, 0x00, 0x00, 0x00, 0x01, 0x00, 0x00, 0x00, 0x10, 0x00, 0x00, 0x00, 
  0x4e, 0xef, 0xff, 0xff, 0x00, 0x00, 0x00, 0x01, 0x18, 0x00, 0x00, 0x00, 
  0x20, 0x00, 0x00, 0x00, 0x40, 0x00, 0x00, 0x00, 0x18, 0x00, 0x00, 0x00, 
  0x00, 0x00, 0x00, 0x09, 0x5c, 0x00, 0x00, 0x00, 0x02, 0x00, 0x00, 0x00, 
  0xff, 0xff, 0xff, 0xff, 0x10, 0x00, 0x00, 0x00, 0x34, 0xef, 0xff, 0xff, 
  0x08, 0x00, 0x00, 0x00, 0x14, 0x00, 0x00, 0x00, 0x01, 0x00, 0x00, 0x00, 
  0x80, 0xff, 0xff, 0xff, 0xff, 0xff, 0xff, 0xff, 0x00, 0x00, 0x00, 0x00, 
  0x01, 0x00, 0x00, 0x00, 0x10, 0xd9, 0x2c, 0x3c, 0x23, 0x00, 0x00, 0x00, 
  0x73, 0x65, 0x71, 0x75, 0x65, 0x6e, 0x74, 0x69, 0x61, 0x6c, 0x5f, 0x31, 
  0x2f, 0x67, 0x6c, 0x6f, 0x62, 0x61, 0x6c, 0x5f, 0x61, 0x76, 0x67, 0x5f, 
  0x70, 0x6f, 0x6f, 0x6c, 0x5f, 0x31, 0x2f, 0x4d, 0x65, 0x61, 0x6e, 0x00, 
  0x02, 0x00, 0x00, 0x00, 0x01, 0x00, 0x00, 0x00, 0x10, 0x00, 0x00, 0x00, 
  0xd2, 0xef, 0xff, 0xff, 0x00, 0x00, 0x00, 0x01, 0x18, 0x00, 0x00, 0x00, 
  0x24, 0x00, 0x00, 0x00, 0x40, 0x00, 0x00, 0x00, 0x17, 0x00, 0x00, 0x00, 
  0x00, 0x00, 0x00, 0x09, 0xe8, 0x00, 0x00, 0x00, 0x03, 0x00, 0x00, 0x00, 
  0xff, 0xff, 0xff, 0xff, 0x3c, 0x00, 0x00, 0x00, 0x10, 0x00, 0x00, 0x00, 
  0xbc, 0xef, 0xff, 0xff, 0x08, 0x00, 0x00, 0x00, 0x10, 0x00, 0x00, 0x00, 
  0x01, 0x00, 0x00, 0x00, 0x80, 0xff, 0xff, 0xff, 0xff, 0xff, 0xff, 0xff, 
  0x01, 0x00, 0x00, 0x00, 0x66, 0xb3, 0x63, 0x3d, 0xaf, 0x00, 0x00, 0x00, 
  0x73, 0x65, 0x71, 0x75, 0x65, 0x6e, 0x74, 0x69, 0x61, 0x6c, 0x5f, 0x31, 
  0x2f, 0x72, 0x65, 0x6c, 0x75, 0x5f, 0x32, 0x5f, 0x31, 0x2f, 0x52, 0x65, 
  0x6c, 0x75, 0x3b, 0x73, 0x65, 0x71, 0x75, 0x65, 0x6e, 0x74, 0x69, 0x61, 
  0x6c, 0x5f, 0x31, 0x2f, 0x62, 0x6e, 0x5f, 0x32, 0x5f, 0x31, 0x2f, 0x62, 
  0x61, 0x74, 0x63, 0x68, 0x6e, 0x6f, 0x72, 0x6d, 0x2f, 0x61, 0x64, 0x64, 
  0x5f, 0x31, 0x3b, 0x73, 0x65, 0x71, 0x75, 0x65, 0x6e, 0x74, 0x69, 0x61, 
  0x6c, 0x5f, 0x31, 0x2f, 0x63, 0x6f, 0x6e, 0x76, 0x31, 0x64, 0x5f, 0x32, 
  0x5f, 0x31, 0x2f, 0x63, 0x6f, 0x6e, 0x76, 0x6f, 0x6c, 0x75, 0x74, 0x69, 
  0x6f, 0x6e, 0x2f, 0x53, 0x71, 0x75, 0x65, 0x65, 0x7a, 0x65, 0x3b, 0x73, 
  0x65, 0x71, 0x75, 0x65, 0x6e, 0x74, 0x69, 0x61, 0x6c, 0x5f, 0x31, 0x2f, 
  0x62, 0x6e, 0x5f, 0x32, 0x5f, 0x31, 0x2f, 0x62, 0x61, 0x74, 0x63, 0x68, 
  0x6e, 0x6f, 0x72, 0x6d, 0x2f, 0x6d, 0x75, 0x6c, 0x5f, 0x31, 0x3b, 0x73, 
  0x65, 0x71, 0x75, 0x65, 0x6e, 0x74, 0x69, 0x61, 0x6c, 0x5f, 0x31, 0x2f, 
  0x63, 0x6f, 0x6e, 0x76, 0x31, 0x64, 0x5f, 0x32, 0x5f, 0x31, 0x2f, 0x42, 
  0x69, 0x61, 0x73, 0x41, 0x64, 0x64, 0x3b, 0x00, 0x03, 0x00, 0x00, 0x00, 
  0x01, 0x00, 0x00, 0x00, 0x3c, 0x00, 0x00, 0x00, 0x10, 0x00, 0x00, 0x00, 
  0xe6, 0xf0, 0xff, 0xff, 0x00, 0x00, 0x00, 0x01, 0x18, 0x00, 0x00, 0x00, 
  0x28, 0x00, 0x00, 0x00, 0x44, 0x00, 0x00, 0x00, 0x16, 0x00, 0x00, 0x00, 
  0x00, 0x00, 0x00, 0x09, 0x10, 0x01, 0x00, 0x00, 0x04, 0x00, 0x00, 0x00, 
  0xff, 0xff, 0xff, 0xff, 0x01, 0x00, 0x00, 0x00, 0x3c, 0x00, 0x00, 0x00, 
  0x10, 0x00, 0x00, 0x00, 0xd4, 0xf0, 0xff, 0xff, 0x08, 0x00, 0x00, 0x00, 
  0x10, 0x00, 0x00, 0x00, 0x01, 0x00, 0x00, 0x00, 0x80, 0xff, 0xff, 0xff, 
  0xff, 0xff, 0xff, 0xff, 0x01, 0x00, 0x00, 0x00, 0x66, 0xb3, 0x63, 0x3d, 
  0xd3, 0x00, 0x00, 0x00, 0x73, 0x65, 0x71, 0x75, 0x65, 0x6e, 0x74, 0x69, 
  0x61, 0x6c, 0x5f, 0x31, 0x2f, 0x72, 0x65, 0x6c, 0x75, 0x5f, 0x32, 0x5f, 
  0x31, 0x2f, 0x52, 0x65, 0x6c, 0x75, 0x3b, 0x73, 0x65, 0x71, 0x75, 0x65, 
  0x6e, 0x74, 0x69, 0x61, 0x6c, 0x5f, 0x31, 0x2f, 0x62, 0x6e, 0x5f, 0x32, 
  0x5f, 0x31, 0x2f, 0x62, 0x61, 0x74, 0x63, 0x68, 0x6e, 0x6f, 0x72, 0x6d, 
  0x2f, 0x61, 0x64, 0x64, 0x5f, 0x31, 0x3b, 0x73, 0x65, 0x71, 0x75, 0x65, 
  0x6e, 0x74, 0x69, 0x61, 0x6c, 0x5f, 0x31, 0x2f, 0x63, 0x6f, 0x6e, 0x76, 
  0x31, 0x64, 0x5f, 0x32, 0x5f, 0x31, 0x2f, 0x63, 0x6f, 0x6e, 0x76, 0x6f, 
  0x6c, 0x75, 0x74, 0x69, 0x6f, 0x6e, 0x2f, 0x53, 0x71, 0x75, 0x65, 0x65, 
  0x7a, 0x65, 0x3b, 0x73, 0x65, 0x71, 0x75, 0x65, 0x6e, 0x74, 0x69, 0x61, 
  0x6c, 0x5f, 0x31, 0x2f, 0x62, 0x6e, 0x5f, 0x32, 0x5f, 0x31, 0x2f, 0x62, 
  0x61, 0x74, 0x63, 0x68, 0x6e, 0x6f, 0x72, 0x6d, 0x2f, 0x6d, 0x75, 0x6c, 
  0x5f, 0x31, 0x3b, 0x73, 0x65, 0x71, 0x75, 0x65, 0x6e, 0x74, 0x69, 0x61, 
  0x6c, 0x5f, 0x31, 0x2f, 0x63, 0x6f, 0x6e, 0x76, 0x31, 0x64, 0x5f, 0x32, 
  0x5f, 0x31, 0x2f, 0x42, 0x69, 0x61, 0x73, 0x41, 0x64, 0x64, 0x3b, 0x3b, 
  0x73, 0x65, 0x71, 0x75, 0x65, 0x6e, 0x74, 0x69, 0x61, 0x6c, 0x5f, 0x31, 
  0x2f, 0x63, 0x6f, 0x6e, 0x76, 0x31, 0x64, 0x5f, 0x32, 0x5f, 0x31, 0x2f, 
  0x63, 0x6f, 0x6e, 0x76, 0x6f, 0x6c, 0x75, 0x74, 0x69, 0x6f, 0x6e, 0x00, 
  0x04, 0x00, 0x00, 0x00, 0x01, 0x00, 0x00, 0x00, 0x01, 0x00, 0x00, 0x00, 
  0x3c, 0x00, 0x00, 0x00, 0x10, 0x00, 0x00, 0x00, 0x26, 0xf2, 0xff, 0xff, 
  0x00, 0x00, 0x00, 0x01, 0x18, 0x00, 0x00, 0x00, 0x28, 0x00, 0x00, 0x00, 
  0x44, 0x00, 0x00, 0x00, 0x15, 0x00, 0x00, 0x00, 0x00, 0x00, 0x00, 0x09, 
  0x6c, 0x00, 0x00, 0x00, 0x04, 0x00, 0x00, 0x00, 0xff, 0xff, 0xff, 0xff, 
  0x01, 0x00, 0x00, 0x00, 0x3c, 0x00, 0x00, 0x00, 0x08, 0x00, 0x00, 0x00, 
  0x14, 0xf2, 0xff, 0xff, 0x08, 0x00, 0x00, 0x00, 0x10, 0x00, 0x00, 0x00, 
  0x01, 0x00, 0x00, 0x00, 0x80, 0xff, 0xff, 0xff, 0xff, 0xff, 0xff, 0xff, 
  0x01, 0x00, 0x00, 0x00, 0x50, 0xe4, 0x0e, 0x3d, 0x2e, 0x00, 0x00, 0x00, 
  0x73, 0x65, 0x71, 0x75, 0x65, 0x6e, 0x74, 0x69, 0x61, 0x6c, 0x5f, 0x31, 
  0x2f, 0x63, 0x6f, 0x6e, 0x76, 0x31, 0x64, 0x5f, 0x32, 0x5f, 0x31, 0x2f, 
  0x63, 0x6f, 0x6e, 0x76, 0x6f, 0x6c, 0x75, 0x74, 0x69, 0x6f, 0x6e, 0x2f, 
  0x45, 0x78, 0x70, 0x61, 0x6e, 0x64, 0x44, 0x69, 0x6d, 0x73, 0x00, 0x00, 
  0x04, 0x00, 0x00, 0x00, 0x01, 0x00, 0x00, 0x00, 0x01, 0x00, 0x00, 0x00, 
  0x3c, 0x00, 0x00, 0x00, 0x08, 0x00, 0x00, 0x00, 0xc2, 0xf2, 0xff, 0xff, 
  0x00, 0x00, 0x00, 0x01, 0x18, 0x00, 0x00, 0x00, 0x24, 0x00, 0x00, 0x00, 
  0x44, 0x00, 0x00, 0x00, 0x14, 0x00, 0x00, 0x00, 0x00, 0x00, 0x00, 0x09, 
  0x68, 0x00, 0x00, 0x00, 0x03, 0x00, 0x00, 0x00, 0xff, 0xff, 0xff, 0xff, 
  0x3c, 0x00, 0x00, 0x00, 0x08, 0x00, 0x00, 0x00, 0xac, 0xf2, 0xff, 0xff, 
  0x08, 0x00, 0x00, 0x00, 0x14, 0x00, 0x00, 0x00, 0x01, 0x00, 0x00, 0x00, 
  0x80, 0xff, 0xff, 0xff, 0xff, 0xff, 0xff, 0xff, 0x00, 0x00, 0x00, 0x00, 
  0x01, 0x00, 0x00, 0x00, 0x50, 0xe4, 0x0e, 0x3d, 0x2a, 0x00, 0x00, 0x00, 
  0x73, 0x65, 0x71, 0x75, 0x65, 0x6e, 0x74, 0x69, 0x61, 0x6c, 0x5f, 0x31, 
  0x2f, 0x6d, 0x61, 0x78, 0x70, 0x6f, 0x6f, 0x6c, 0x5f, 0x31, 0x5f, 0x31, 
  0x2f, 0x4d, 0x61, 0x78, 0x50, 0x6f, 0x6f, 0x6c, 0x31, 0x64, 0x2f, 0x53, 
  0x71, 0x75, 0x65, 0x65, 0x7a, 0x65, 0x00, 0x00, 0x03, 0x00, 0x00, 0x00, 
  0x01, 0x00, 0x00, 0x00, 0x3c, 0x00, 0x00, 0x00, 0x08, 0x00, 0x00, 0x00, 
  0x56, 0xf3, 0xff, 0xff, 0x00, 0x00, 0x00, 0x01, 0x18, 0x00, 0x00, 0x00, 
  0x28, 0x00, 0x00, 0x00, 0x44, 0x00, 0x00, 0x00, 0x13, 0x00, 0x00, 0x00, 
  0x00, 0x00, 0x00, 0x09, 0x60, 0x00, 0x00, 0x00, 0x04, 0x00, 0x00, 0x00, 
  0xff, 0xff, 0xff, 0xff, 0x01, 0x00, 0x00, 0x00, 0x3c, 0x00, 0x00, 0x00, 
  0x08, 0x00, 0x00, 0x00, 0x44, 0xf3, 0xff, 0xff, 0x08, 0x00, 0x00, 0x00, 
  0x10, 0x00, 0x00, 0x00, 0x01, 0x00, 0x00, 0x00, 0x80, 0xff, 0xff, 0xff, 
  0xff, 0xff, 0xff, 0xff, 0x01, 0x00, 0x00, 0x00, 0x50, 0xe4, 0x0e, 0x3d, 
  0x22, 0x00, 0x00, 0x00, 0x73, 0x65, 0x71, 0x75, 0x65, 0x6e, 0x74, 0x69, 
  0x61, 0x6c, 0x5f, 0x31, 0x2f, 0x6d, 0x61, 0x78, 0x70, 0x6f, 0x6f, 0x6c, 
  0x5f, 0x31, 0x5f, 0x31, 0x2f, 0x4d, 0x61, 0x78, 0x50, 0x6f, 0x6f, 0x6c, 
  0x31, 0x64, 0x00, 0x00, 0x04, 0x00, 0x00, 0x00, 0x01, 0x00, 0x00, 0x00, 
  0x01, 0x00, 0x00, 0x00, 0x3c, 0x00, 0x00, 0x00, 0x08, 0x00, 0x00, 0x00, 
  0xe6, 0xf3, 0xff, 0xff, 0x00, 0x00, 0x00, 0x01, 0x18, 0x00, 0x00, 0x00, 
  0x28, 0x00, 0x00, 0x00, 0x44, 0x00, 0x00, 0x00, 0x12, 0x00, 0x00, 0x00, 
  0x00, 0x00, 0x00, 0x09, 0x6c, 0x00, 0x00, 0x00, 0x04, 0x00, 0x00, 0x00, 
  0xff, 0xff, 0xff, 0xff, 0x01, 0x00, 0x00, 0x00, 0x78, 0x00, 0x00, 0x00, 
  0x08, 0x00, 0x00, 0x00, 0xd4, 0xf3, 0xff, 0xff, 0x08, 0x00, 0x00, 0x00, 
  0x10, 0x00, 0x00, 0x00, 0x01, 0x00, 0x00, 0x00, 0x80, 0xff, 0xff, 0xff, 
  0xff, 0xff, 0xff, 0xff, 0x01, 0x00, 0x00, 0x00, 0x50, 0xe4, 0x0e, 0x3d, 
  0x2d, 0x00, 0x00, 0x00, 0x73, 0x65, 0x71, 0x75, 0x65, 0x6e, 0x74, 0x69, 
  0x61, 0x6c, 0x5f, 0x31, 0x2f, 0x6d, 0x61, 0x78, 0x70, 0x6f, 0x6f, 0x6c, 
  0x5f, 0x31, 0x5f, 0x31, 0x2f, 0x4d, 0x61, 0x78, 0x50, 0x6f, 0x6f, 0x6c, 
  0x31, 0x64, 0x2f, 0x45, 0x78, 0x70, 0x61, 0x6e, 0x64, 0x44, 0x69, 0x6d, 
  0x73, 0x00, 0x00, 0x00, 0x04, 0x00, 0x00, 0x00, 0x01, 0x00, 0x00, 0x00, 
  0x01, 0x00, 0x00, 0x00, 0x78, 0x00, 0x00, 0x00, 0x08, 0x00, 0x00, 0x00, 
  0x82, 0xf4, 0xff, 0xff, 0x00, 0x00, 0x00, 0x01, 0x18, 0x00, 0x00, 0x00, 
  0x24, 0x00, 0x00, 0x00, 0x40, 0x00, 0x00, 0x00, 0x11, 0x00, 0x00, 0x00, 
  0x00, 0x00, 0x00, 0x09, 0xe8, 0x00, 0x00, 0x00, 0x03, 0x00, 0x00, 0x00, 
  0xff, 0xff, 0xff, 0xff, 0x78, 0x00, 0x00, 0x00, 0x08, 0x00, 0x00, 0x00, 
  0x6c, 0xf4, 0xff, 0xff, 0x08, 0x00, 0x00, 0x00, 0x10, 0x00, 0x00, 0x00, 
  0x01, 0x00, 0x00, 0x00, 0x80, 0xff, 0xff, 0xff, 0xff, 0xff, 0xff, 0xff, 
  0x01, 0x00, 0x00, 0x00, 0x50, 0xe4, 0x0e, 0x3d, 0xaf, 0x00, 0x00, 0x00, 
  0x73, 0x65, 0x71, 0x75, 0x65, 0x6e, 0x74, 0x69, 0x61, 0x6c, 0x5f, 0x31, 
  0x2f, 0x72, 0x65, 0x6c, 0x75, 0x5f, 0x31, 0x5f, 0x31, 0x2f, 0x52, 0x65, 
  0x6c, 0x75, 0x3b, 0x73, 0x65, 0x71, 0x75, 0x65, 0x6e, 0x74, 0x69, 0x61, 
  0x6c, 0x5f, 0x31, 0x2f, 0x62, 0x6e, 0x5f, 0x31, 0x5f, 0x31, 0x2f, 0x62, 
  0x61, 0x74, 0x63, 0x68, 0x6e, 0x6f, 0x72, 0x6d, 0x2f, 0x61, 0x64, 0x64, 
  0x5f, 0x31, 0x3b, 0x73, 0x65, 0x71, 0x75, 0x65, 0x6e, 0x74, 0x69, 0x61, 
  0x6c, 0x5f, 0x31, 0x2f, 0x63, 0x6f, 0x6e, 0x76, 0x31, 0x64, 0x5f, 0x31, 
  0x5f, 0x31, 0x2f, 0x63, 0x6f, 0x6e, 0x76, 0x6f, 0x6c, 0x75, 0x74, 0x69, 
  0x6f, 0x6e, 0x2f, 0x53, 0x71, 0x75, 0x65, 0x65, 0x7a, 0x65, 0x3b, 0x73, 
  0x65, 0x71, 0x75, 0x65, 0x6e, 0x74, 0x69, 0x61, 0x6c, 0x5f, 0x31, 0x2f, 
  0x62, 0x6e, 0x5f, 0x31, 0x5f, 0x31, 0x2f, 0x62, 0x61, 0x74, 0x63, 0x68, 
  0x6e, 0x6f, 0x72, 0x6d, 0x2f, 0x6d, 0x75, 0x6c, 0x5f, 0x31, 0x3b, 0x73, 
  0x65, 0x71, 0x75, 0x65, 0x6e, 0x74, 0x69, 0x61, 0x6c, 0x5f, 0x31, 0x2f, 
  0x63, 0x6f, 0x6e, 0x76, 0x31, 0x64, 0x5f, 0x31, 0x5f, 0x31, 0x2f, 0x42, 
  0x69, 0x61, 0x73, 0x41, 0x64, 0x64, 0x3b, 0x00, 0x03, 0x00, 0x00, 0x00, 
  0x01, 0x00, 0x00, 0x00, 0x78, 0x00, 0x00, 0x00, 0x08, 0x00, 0x00, 0x00, 
  0x96, 0xf5, 0xff, 0xff, 0x00, 0x00, 0x00, 0x01, 0x18, 0x00, 0x00, 0x00, 
  0x28, 0x00, 0x00, 0x00, 0x44, 0x00, 0x00, 0x00, 0x10, 0x00, 0x00, 0x00, 
  0x00, 0x00, 0x00, 0x09, 0x10, 0x01, 0x00, 0x00, 0x04, 0x00, 0x00, 0x00, 
  0xff, 0xff, 0xff, 0xff, 0x01, 0x00, 0x00, 0x00, 0x78, 0x00, 0x00, 0x00, 
  0x08, 0x00, 0x00, 0x00, 0x84, 0xf5, 0xff, 0xff, 0x08, 0x00, 0x00, 0x00, 
  0x10, 0x00, 0x00, 0x00, 0x01, 0x00, 0x00, 0x00, 0x80, 0xff, 0xff, 0xff, 
  0xff, 0xff, 0xff, 0xff, 0x01, 0x00, 0x00, 0x00, 0x50, 0xe4, 0x0e, 0x3d, 
  0xd3, 0x00, 0x00, 0x00, 0x73, 0x65, 0x71, 0x75, 0x65, 0x6e, 0x74, 0x69, 
  0x61, 0x6c, 0x5f, 0x31, 0x2f, 0x72, 0x65, 0x6c, 0x75, 0x5f, 0x31, 0x5f, 
  0x31, 0x2f, 0x52, 0x65, 0x6c, 0x75, 0x3b, 0x73, 0x65, 0x71, 0x75, 0x65, 
  0x6e, 0x74, 0x69, 0x61, 0x6c, 0x5f, 0x31, 0x2f, 0x62, 0x6e, 0x5f, 0x31, 
  0x5f, 0x31, 0x2f, 0x62, 0x61, 0x74, 0x63, 0x68, 0x6e, 0x6f, 0x72, 0x6d, 
  0x2f, 0x61, 0x64, 0x64, 0x5f, 0x31, 0x3b, 0x73, 0x65, 0x71, 0x75, 0x65, 
  0x6e, 0x74, 0x69, 0x61, 0x6c, 0x5f, 0x31, 0x2f, 0x63, 0x6f, 0x6e, 0x76, 
  0x31, 0x64, 0x5f, 0x31, 0x5f, 0x31, 0x2f, 0x63, 0x6f, 0x6e, 0x76, 0x6f, 
  0x6c, 0x75, 0x74, 0x69, 0x6f, 0x6e, 0x2f, 0x53, 0x71, 0x75, 0x65, 0x65, 
  0x7a, 0x65, 0x3b, 0x73, 0x65, 0x71, 0x75, 0x65, 0x6e, 0x74, 0x69, 0x61, 
  0x6c, 0x5f, 0x31, 0x2f, 0x62, 0x6e, 0x5f, 0x31, 0x5f, 0x31, 0x2f, 0x62, 
  0x61, 0x74, 0x63, 0x68, 0x6e, 0x6f, 0x72, 0x6d, 0x2f, 0x6d, 0x75, 0x6c, 
  0x5f, 0x31, 0x3b, 0x73, 0x65, 0x71, 0x75, 0x65, 0x6e, 0x74, 0x69, 0x61, 
  0x6c, 0x5f, 0x31, 0x2f, 0x63, 0x6f, 0x6e, 0x76, 0x31, 0x64, 0x5f, 0x31, 
  0x5f, 0x31, 0x2f, 0x42, 0x69, 0x61, 0x73, 0x41, 0x64, 0x64, 0x3b, 0x3b, 
  0x73, 0x65, 0x71, 0x75, 0x65, 0x6e, 0x74, 0x69, 0x61, 0x6c, 0x5f, 0x31, 
  0x2f, 0x63, 0x6f, 0x6e, 0x76, 0x31, 0x64, 0x5f, 0x31, 0x5f, 0x31, 0x2f, 
  0x63, 0x6f, 0x6e, 0x76, 0x6f, 0x6c, 0x75, 0x74, 0x69, 0x6f, 0x6e, 0x00, 
  0x04, 0x00, 0x00, 0x00, 0x01, 0x00, 0x00, 0x00, 0x01, 0x00, 0x00, 0x00, 
  0x78, 0x00, 0x00, 0x00, 0x08, 0x00, 0x00, 0x00, 0xd6, 0xf6, 0xff, 0xff, 
  0x00, 0x00, 0x00, 0x01, 0x18, 0x00, 0x00, 0x00, 0x28, 0x00, 0x00, 0x00, 
  0x48, 0x00, 0x00, 0x00, 0x0f, 0x00, 0x00, 0x00, 0x00, 0x00, 0x00, 0x09, 
  0x70, 0x00, 0x00, 0x00, 0x04, 0x00, 0x00, 0x00, 0xff, 0xff, 0xff, 0xff, 
  0x01, 0x00, 0x00, 0x00, 0x78, 0x00, 0x00, 0x00, 0x06, 0x00, 0x00, 0x00, 
  0xc4, 0xf6, 0xff, 0xff, 0x08, 0x00, 0x00, 0x00, 0x14, 0x00, 0x00, 0x00, 
  0x01, 0x00, 0x00, 0x00, 0xed, 0xff, 0xff, 0xff, 0xff, 0xff, 0xff, 0xff, 
  0x00, 0x00, 0x00, 0x00, 0x01, 0x00, 0x00, 0x00, 0xd3, 0x73, 0xbc, 0x3d, 
  0x2e, 0x00, 0x00, 0x00, 0x73, 0x65, 0x71, 0x75, 0x65, 0x6e, 0x74, 0x69, 
  0x61, 0x6c, 0x5f, 0x31, 0x2f, 0x63, 0x6f, 0x6e, 0x76, 0x31, 0x64, 0x5f, 
  0x31, 0x5f, 0x31, 0x2f, 0x63, 0x6f, 0x6e, 0x76, 0x6f, 0x6c, 0x75, 0x74, 
  0x69, 0x6f, 0x6e, 0x2f, 0x45, 0x78, 0x70, 0x61, 0x6e, 0x64, 0x44, 0x69, 
  0x6d, 0x73, 0x00, 0x00, 0x04, 0x00, 0x00, 0x00, 0x01, 0x00, 0x00, 0x00, 
  0x01, 0x00, 0x00, 0x00, 0x78, 0x00, 0x00, 0x00, 0x06, 0x00, 0x00, 0x00, 
  0xca, 0xf7, 0xff, 0xff, 0x00, 0x00, 0x00, 0x01, 0x14, 0x00, 0x00, 0x00, 
  0x88, 0x00, 0x00, 0x00, 0x0e, 0x00, 0x00, 0x00, 0x00, 0x00, 0x00, 0x09, 
  0x94, 0x00, 0x00, 0x00, 0x4c, 0xf7, 0xff, 0xff, 0x08, 0x00, 0x00, 0x00, 
  0x4c, 0x00, 0x00, 0x00, 0x08, 0x00, 0x00, 0x00, 0x00, 0x00, 0x00, 0x00, 
  0x00, 0x00, 0x00, 0x00, 0x00, 0x00, 0x00, 0x00, 0x00, 0x00, 0x00, 0x00, 
  0x00, 0x00, 0x00, 0x00, 0x00, 0x00, 0x00, 0x00, 0x00, 0x00, 0x00, 0x00, 
  0x00, 0x00, 0x00, 0x00, 0x00, 0x00, 0x00, 0x00, 0x00, 0x00, 0x00, 0x00, 
  0x00, 0x00, 0x00, 0x00, 0x00, 0x00, 0x00, 0x00, 0x00, 0x00, 0x00, 0x00, 
  0x00, 0x00, 0x00, 0x00, 0x00, 0x00, 0x00, 0x00, 0x00, 0x00, 0x00, 0x00, 
  0x00, 0x00, 0x00, 0x00, 0x08, 0x00, 0x00, 0x00, 0xf1, 0x96, 0x25, 0x3b, 
  0x0a, 0x7b, 0x0f, 0x3b, 0x24, 0x41, 0x28, 0x3b, 0x18, 0xcb, 0x2d, 0x3b, 
  0xcd, 0xff, 0x07, 0x3b, 0xef, 0x62, 0x2b, 0x3b, 0x42, 0x64, 0x49, 0x3b, 
  0xcf, 0x83, 0x06, 0x3b, 0x12, 0x00, 0x00, 0x00, 0x74, 0x66, 0x6c, 0x2e, 
  0x70, 0x73, 0x65, 0x75, 0x64, 0x6f, 0x5f, 0x71, 0x63, 0x6f, 0x6e, 0x73, 
  0x74, 0x37, 0x00, 0x00, 0x04, 0x00, 0x00, 0x00, 0x08, 0x00, 0x00, 0x00, 
  0x01, 0x00, 0x00, 0x00, 0x05, 0x00, 0x00, 0x00, 0x06, 0x00, 0x00, 0x00, 
  0x8a, 0xf8, 0xff, 0xff, 0x00, 0x00, 0x00, 0x01, 0x14, 0x00, 0x00, 0x00, 
  0x84, 0x00, 0x00, 0x00, 0x0d, 0x00, 0x00, 0x00, 0x00, 0x00, 0x00, 0x02, 
  0x90, 0x00, 0x00, 0x00, 0x0c, 0xf8, 0xff, 0xff, 0x08, 0x00, 0x00, 0x00, 
  0x48, 0x00, 0x00, 0x00, 0x08, 0x00, 0x00, 0x00, 0x00, 0x00, 0x00, 0x00, 
  0x00, 0x00, 0x00, 0x00, 0x00, 0x00, 0x00, 0x00, 0x00, 0x00, 0x00, 0x00, 
  0x00, 0x00, 0x00, 0x00, 0x00, 0x00, 0x00, 0x00, 0x00, 0x00, 0x00, 0x00, 
  0x00, 0x00, 0x00, 0x00, 0x00, 0x00, 0x00, 0x00, 0x00, 0x00, 0x00, 0x00, 
  0x00, 0x00, 0x00, 0x00, 0x00, 0x00, 0x00, 0x00, 0x00, 0x00, 0x00, 0x00, 
  0x00, 0x00, 0x00, 0x00, 0x00, 0x00, 0x00, 0x00, 0x00, 0x00, 0x00, 0x00, 
  0x08, 0x00, 0x00, 0x00, 0x89, 0xcb, 0x73, 0x39, 0x8c, 0x3e, 0x53, 0x39, 
  0xed, 0xb7, 0x77, 0x39, 0x8e, 0xdf, 0x7f, 0x39, 0xc5, 0x3a, 0x48, 0x39, 
  0x64, 0x54, 0x7c, 0x39, 0xbe, 0x40, 0x94, 0x39, 0x50, 0x0b, 0x46, 0x39, 
  0x12, 0x00, 0x00, 0x00, 0x74, 0x66, 0x6c, 0x2e, 0x70, 0x73, 0x65, 0x75, 
  0x64, 0x6f, 0x5f, 0x71, 0x63, 0x6f, 0x6e, 0x73, 0x74, 0x36, 0x00, 0x00, 
  0x01, 0x00, 0x00, 0x00, 0x08, 0x00, 0x00, 0x00, 0x3a, 0xf9, 0xff, 0xff, 
  0x00, 0x00, 0x00, 0x01, 0x14, 0x00, 0x00, 0x00, 0xe8, 0x00, 0x00, 0x00, 
  0x0c, 0x00, 0x00, 0x00, 0x00, 0x00, 0x00, 0x09, 0xf4, 0x00, 0x00, 0x00, 
  0xbc, 0xf8, 0xff, 0xff, 0x08, 0x00, 0x00, 0x00, 0x8c, 0x00, 0x00, 0x00, 
  0x10, 0x00, 0x00, 0x00, 0x00, 0x00, 0x00, 0x00, 0x00, 0x00, 0x00, 0x00, 
  0x00, 0x00, 0x00, 0x00, 0x00, 0x00, 0x00, 0x00, 0x00, 0x00, 0x00, 0x00, 
  0x00, 0x00, 0x00, 0x00, 0x00, 0x00, 0x00, 0x00, 0x00, 0x00, 0x00, 0x00, 
  0x00, 0x00, 0x00, 0x00, 0x00, 0x00, 0x00, 0x00, 0x00, 0x00, 0x00, 0x00, 
  0x00, 0x00, 0x00, 0x00, 0x00, 0x00, 0x00, 0x00, 0x00, 0x00, 0x00, 0x00, 
  0x00, 0x00, 0x00, 0x00, 0x00, 0x00, 0x00, 0x00, 0x00, 0x00, 0x00, 0x00, 
  0x00, 0x00, 0x00, 0x00, 0x00, 0x00, 0x00, 0x00, 0x00, 0x00, 0x00, 0x00, 
  0x00, 0x00, 0x00, 0x00, 0x00, 0x00, 0x00, 0x00, 0x00, 0x00, 0x00, 0x00, 
  0x00, 0x00, 0x00, 0x00, 0x00, 0x00, 0x00, 0x00, 0x00, 0x00, 0x00, 0x00, 
  0x00, 0x00, 0x00, 0x00, 0x00, 0x00, 0x00, 0x00, 0x00, 0x00, 0x00, 0x00, 
  0x00, 0x00, 0x00, 0x00, 0x00, 0x00, 0x00, 0x00, 0x00, 0x00, 0x00, 0x00, 
  0x00, 0x00, 0x00, 0x00, 0x10, 0x00, 0x00, 0x00, 0xa6, 0x59, 0x8c, 0x3b, 
  0x06, 0x1d, 0xae, 0x3b, 0xd9, 0x68, 0xc4, 0x3b, 0xad, 0x46, 0x63, 0x3b, 
  0xb0, 0xdd, 0x6b, 0x3b, 0xf4, 0x29, 0x82, 0x3b, 0x63, 0x05, 0x88, 0x3b, 
  0x12, 0x1c, 0x6a, 0x3b, 0x04, 0x2d, 0x9c, 0x3b, 0x6d, 0xc0, 0xee, 0x3b, 
  0x42, 0x87, 0xb5, 0x3b, 0x68, 0x96, 0x17, 0x3b, 0x2e, 0x7b, 0x8f, 0x3b, 
  0xea, 0x06, 0xeb, 0x3b, 0x3e, 0xaf, 0x7c, 0x3b, 0x36, 0x7f, 0xb1, 0x3b, 
  0x12, 0x00, 0x00, 0x00, 0x74, 0x66, 0x6c, 0x2e, 0x70, 0x73, 0x65, 0x75, 
  0x64, 0x6f, 0x5f, 0x71, 0x63, 0x6f, 0x6e, 0x73, 0x74, 0x35, 0x00, 0x00, 
  0x04, 0x00, 0x00, 0x00, 0x10, 0x00, 0x00, 0x00, 0x01, 0x00, 0x00, 0x00, 
  0x03, 0x00, 0x00, 0x00, 0x08, 0x00, 0x00, 0x00, 0x5a, 0xfa, 0xff, 0xff, 
  0x00, 0x00, 0x00, 0x01, 0x14, 0x00, 0x00, 0x00, 0xe4, 0x00, 0x00, 0x00, 
  0x0b, 0x00, 0x00, 0x00, 0x00, 0x00, 0x00, 0x02, 0xf0, 0x00, 0x00, 0x00, 
  0xdc, 0xf9, 0xff, 0xff, 0x08, 0x00, 0x00, 0x00, 0x88, 0x00, 0x00, 0x00, 
  0x10, 0x00, 0x00, 0x00, 0x00, 0x00, 0x00, 0x00, 0x00, 0x00, 0x00, 0x00, 
  0x00, 0x00, 0x00, 0x00, 0x00, 0x00, 0x00, 0x00, 0x00, 0x00, 0x00, 0x00, 
  0x00, 0x00, 0x00, 0x00, 0x00, 0x00, 0x00, 0x00, 0x00, 0x00, 0x00, 0x00, 
  0x00, 0x00, 0x00, 0x00, 0x00, 0x00, 0x00, 0x00, 0x00, 0x00, 0x00, 0x00, 
  0x00, 0x00, 0x00, 0x00, 0x00, 0x00, 0x00, 0x00, 0x00, 0x00, 0x00, 0x00, 
  0x00, 0x00, 0x00, 0x00, 0x00, 0x00, 0x00, 0x00, 0x00, 0x00, 0x00, 0x00, 
  0x00, 0x00, 0x00, 0x00, 0x00, 0x00, 0x00, 0x00, 0x00, 0x00, 0x00, 0x00, 
  0x00, 0x00, 0x00, 0x00, 0x00, 0x00, 0x00, 0x00, 0x00, 0x00, 0x00, 0x00, 
  0x00, 0x00, 0x00, 0x00, 0x00, 0x00, 0x00, 0x00, 0x00, 0x00, 0x00, 0x00, 
  0x00, 0x00, 0x00, 0x00, 0x00, 0x00, 0x00, 0x00, 0x00, 0x00, 0x00, 0x00, 
  0x00, 0x00, 0x00, 0x00, 0x00, 0x00, 0x00, 0x00, 0x00, 0x00, 0x00, 0x00, 
  0x10, 0x00, 0x00, 0x00, 0xcc, 0xad, 0x1c, 0x39, 0xc3, 0x5e, 0x42, 0x39, 
  0xa6, 0x42, 0x5b, 0x39, 0xcc, 0xb7, 0xfd, 0x38, 0x53, 0xa7, 0x03, 0x39, 
  0xb7, 0x4e, 0x11, 0x39, 0x98, 0xd8, 0x17, 0x39, 0x5c, 0xac, 0x02, 0x39, 
  0x82, 0x58, 0x2e, 0x39, 0xaa, 0x43, 0x85, 0x39, 0xd8, 0xa5, 0x4a, 0x39, 
  0x3e, 0x39, 0xa9, 0x38, 0x94, 0x2c, 0x20, 0x39, 0x71, 0x2f, 0x83, 0x39, 
  0x8f, 0x0a, 0x0d, 0x39, 0xb9, 0x25, 0x46, 0x39, 0x12, 0x00, 0x00, 0x00, 
  0x74, 0x66, 0x6c, 0x2e, 0x70, 0x73, 0x65, 0x75, 0x64, 0x6f, 0x5f, 0x71, 
  0x63, 0x6f, 0x6e, 0x73, 0x74, 0x34, 0x00, 0x00, 0x01, 0x00, 0x00, 0x00, 
  0x10, 0x00, 0x00, 0x00, 0x6a, 0xfb, 0xff, 0xff, 0x00, 0x00, 0x00, 0x01, 
  0x14, 0x00, 0x00, 0x00, 0xe8, 0x00, 0x00, 0x00, 0x0a, 0x00, 0x00, 0x00, 
  0x00, 0x00, 0x00, 0x09, 0xf4, 0x00, 0x00, 0x00, 0xec, 0xfa, 0xff, 0xff, 
  0x08, 0x00, 0x00, 0x00, 0x8c, 0x00, 0x00, 0x00, 0x10, 0x00, 0x00, 0x00, 
  0x00, 0x00, 0x00, 0x00, 0x00, 0x00, 0x00, 0x00, 0x00, 0x00, 0x00, 0x00, 
  0x00, 0x00, 0x00, 0x00, 0x00, 0x00, 0x00, 0x00, 0x00, 0x00, 0x00, 0x00, 
  0x00, 0x00, 0x00, 0x00, 0x00, 0x00, 0x00, 0x00, 0x00, 0x00, 0x00, 0x00, 
  0x00, 0x00, 0x00, 0x00, 0x00, 0x00, 0x00, 0x00, 0x00, 0x00, 0x00, 0x00, 
  0x00, 0x00, 0x00, 0x00, 0x00, 0x00, 0x00, 0x00, 0x00, 0x00, 0x00, 0x00, 
  0x00, 0x00, 0x00, 0x00, 0x00, 0x00, 0x00, 0x00, 0x00, 0x00, 0x00, 0x00, 
  0x00, 0x00, 0x00, 0x00, 0x00, 0x00, 0x00, 0x00, 0x00, 0x00, 0x00, 0x00, 
  0x00, 0x00, 0x00, 0x00, 0x00, 0x00, 0x00, 0x00, 0x00, 0x00, 0x00, 0x00, 
  0x00, 0x00, 0x00, 0x00, 0x00, 0x00, 0x00, 0x00, 0x00, 0x00, 0x00, 0x00, 
  0x00, 0x00, 0x00, 0x00, 0x00, 0x00, 0x00, 0x00, 0x00, 0x00, 0x00, 0x00, 
  0x00, 0x00, 0x00, 0x00, 0x00, 0x00, 0x00, 0x00, 0x00, 0x00, 0x00, 0x00, 
  0x10, 0x00, 0x00, 0x00, 0x68, 0x2d, 0x9e, 0x3b, 0xfc, 0x6b, 0x9e, 0x3b, 
  0xa1, 0x30, 0x99, 0x3b, 0xf4, 0xcb, 0x96, 0x3b, 0x45, 0x25, 0x9d, 0x3b, 
  0x15, 0xb8, 0x3d, 0x3b, 0x1d, 0xfa, 0x8d, 0x3b, 0xf0, 0xb7, 0xb1, 0x3b, 
  0x50, 0x0a, 0x8d, 0x3b, 0x71, 0x42, 0xbd, 0x3b, 0x15, 0x3f, 0x98, 0x3b, 
  0x5a, 0xa5, 0xb4, 0x3b, 0xf3, 0x9d, 0x7a, 0x3b, 0x00, 0x1a, 0xa8, 0x3b, 
  0x8e, 0x94, 0xd3, 0x3b, 0x51, 0x12, 0x65, 0x3b, 0x12, 0x00, 0x00, 0x00, 
  0x74, 0x66, 0x6c, 0x2e, 0x70, 0x73, 0x65, 0x75, 0x64, 0x6f, 0x5f, 0x71, 
  0x63, 0x6f, 0x6e, 0x73, 0x74, 0x33, 0x00, 0x00, 0x02, 0x00, 0x00, 0x00, 
  0x10, 0x00, 0x00, 0x00, 0x10, 0x00, 0x00, 0x00, 0x82, 0xfc, 0xff, 0xff, 
  0x00, 0x00, 0x00, 0x01, 0x14, 0x00, 0x00, 0x00, 0xe4, 0x00, 0x00, 0x00, 
  0x09, 0x00, 0x00, 0x00, 0x00, 0x00, 0x00, 0x02, 0xf0, 0x00, 0x00, 0x00, 
  0x04, 0xfc, 0xff, 0xff, 0x08, 0x00, 0x00, 0x00, 0x88, 0x00, 0x00, 0x00, 
  0x10, 0x00, 0x00, 0x00, 0x00, 0x00, 0x00, 0x00, 0x00, 0x00, 0x00, 0x00, 
  0x00, 0x00, 0x00, 0x00, 0x00, 0x00, 0x00, 0x00, 0x00, 0x00, 0x00, 0x00, 
  0x00, 0x00, 0x00, 0x00, 0x00, 0x00, 0x00, 0x00, 0x00, 0x00, 0x00, 0x00, 
  0x00, 0x00, 0x00, 0x00, 0x00, 0x00, 0x00, 0x00, 0x00, 0x00, 0x00, 0x00, 
  0x00, 0x00, 0x00, 0x00, 0x00, 0x00, 0x00, 0x00, 0x00, 0x00, 0x00, 0x00, 
  0x00, 0x00, 0x00, 0x00, 0x00, 0x00, 0x00, 0x00, 0x00, 0x00, 0x00, 0x00, 
  0x00, 0x00, 0x00, 0x00, 0x00, 0x00, 0x00, 0x00, 0x00, 0x00, 0x00, 0x00, 
  0x00, 0x00, 0x00, 0x00, 0x00, 0x00, 0x00, 0x00, 0x00, 0x00, 0x00, 0x00, 
  0x00, 0x00, 0x00, 0x00, 0x00, 0x00, 0x00, 0x00, 0x00, 0x00, 0x00, 0x00, 
  0x00, 0x00, 0x00, 0x00, 0x00, 0x00, 0x00, 0x00, 0x00, 0x00, 0x00, 0x00, 
  0x00, 0x00, 0x00, 0x00, 0x00, 0x00, 0x00, 0x00, 0x00, 0x00, 0x00, 0x00, 
  0x10, 0x00, 0x00, 0x00, 0x40, 0x99, 0x55, 0x38, 0xc1, 0xed, 0x55, 0x38, 
  0x20, 0xdd, 0x4e, 0x38, 0xc8, 0xa1, 0x4b, 0x38, 0x92, 0x34, 0x54, 0x38, 
  0x8b, 0x18, 0x00, 0x38, 0xdb, 0xb8, 0x3f, 0x38, 0x8b, 0xfc, 0x6f, 0x38, 
  0x09, 0x75, 0x3e, 0x38, 0x3a, 0x92, 0x7f, 0x38, 0xf2, 0x96, 0x4d, 0x38, 
  0x88, 0xf0, 0x73, 0x38, 0x9f, 0x36, 0x29, 0x38, 0x01, 0x00, 0x63, 0x38, 
  0x36, 0xdb, 0x8e, 0x38, 0x89, 0xaa, 0x1a, 0x38, 0x12, 0x00, 0x00, 0x00, 
  0x74, 0x66, 0x6c, 0x2e, 0x70, 0x73, 0x65, 0x75, 0x64, 0x6f, 0x5f, 0x71, 
  0x63, 0x6f, 0x6e, 0x73, 0x74, 0x32, 0x00, 0x00, 0x01, 0x00, 0x00, 0x00, 
  0x10, 0x00, 0x00, 0x00, 0x92, 0xfd, 0xff, 0xff, 0x00, 0x00, 0x00, 0x01, 
  0x14, 0x00, 0x00, 0x00, 0x90, 0x00, 0x00, 0x00, 0x08, 0x00, 0x00, 0x00, 
  0x00, 0x00, 0x00, 0x09, 0x9c, 0x00, 0x00, 0x00, 0x14, 0xfd, 0xff, 0xff, 
  0x08, 0x00, 0x00, 0x00, 0x50, 0x00, 0x00, 0x00, 0x09, 0x00, 0x00, 0x00, 
  0x00, 0x00, 0x00, 0x00, 0x00, 0x00, 0x00, 0x00, 0x00, 0x00, 0x00, 0x00, 
  0x00, 0x00, 0x00, 0x00, 0x00, 0x00, 0x00, 0x00, 0x00, 0x00, 0x00, 0x00, 
  0x00, 0x00, 0x00, 0x00, 0x00, 0x00, 0x00, 0x00, 0x00, 0x00, 0x00, 0x00, 
  0x00, 0x00, 0x00, 0x00, 0x00, 0x00, 0x00, 0x00, 0x00, 0x00, 0x00, 0x00, 
  0x00, 0x00, 0x00, 0x00, 0x00, 0x00, 0x00, 0x00, 0x00, 0x00, 0x00, 0x00, 
  0x00, 0x00, 0x00, 0x00, 0x00, 0x00, 0x00, 0x00, 0x00, 0x00, 0x00, 0x00, 
  0x09, 0x00, 0x00, 0x00, 0x67, 0xe8, 0x98, 0x3b, 0x8d, 0xd2, 0xc8, 0x3b, 
  0xc2, 0x31, 0xca, 0x3b, 0x11, 0x2c, 0xb8, 0x3b, 0xc7, 0x54, 0x88, 0x3b, 
  0xcd, 0x9d, 0xc5, 0x3b, 0x1b, 0x2a, 0x0b, 0x3c, 0x32, 0xda, 0xca, 0x3b, 
  0x6c, 0x4b, 0xe5, 0x3b, 0x12, 0x00, 0x00, 0x00, 0x74, 0x66, 0x6c, 0x2e, 
  0x70, 0x73, 0x65, 0x75, 0x64, 0x6f, 0x5f, 0x71, 0x63, 0x6f, 0x6e, 0x73, 
  0x74, 0x31, 0x00, 0x00, 0x02, 0x00, 0x00, 0x00, 0x09, 0x00, 0x00, 0x00, 
  0x10, 0x00, 0x00, 0x00, 0x52, 0xfe, 0xff, 0xff, 0x00, 0x00, 0x00, 0x01, 
  0x14, 0x00, 0x00, 0x00, 0x94, 0x00, 0x00, 0x00, 0x07, 0x00, 0x00, 0x00, 
  0x00, 0x00, 0x00, 0x02, 0xa0, 0x00, 0x00, 0x00, 0xd4, 0xfd, 0xff, 0xff, 
  0x08, 0x00, 0x00, 0x00, 0x54, 0x00, 0x00, 0x00, 0x09, 0x00, 0x00, 0x00, 
  0x00, 0x00, 0x00, 0x00, 0x00, 0x00, 0x00, 0x00, 0x00, 0x00, 0x00, 0x00, 
  0x00, 0x00, 0x00, 0x00, 0x00, 0x00, 0x00, 0x00, 0x00, 0x00, 0x00, 0x00, 
  0x00, 0x00, 0x00, 0x00, 0x00, 0x00, 0x00, 0x00, 0x00, 0x00, 0x00, 0x00, 
  0x00, 0x00, 0x00, 0x00, 0x00, 0x00, 0x00, 0x00, 0x00, 0x00, 0x00, 0x00, 
  0x00, 0x00, 0x00, 0x00, 0x00, 0x00, 0x00, 0x00, 0x00, 0x00, 0x00, 0x00, 
  0x00, 0x00, 0x00, 0x00, 0x00, 0x00, 0x00, 0x00, 0x00, 0x00, 0x00, 0x00, 
  0x00, 0x00, 0x00, 0x00, 0x09, 0x00, 0x00, 0x00, 0xf2, 0xfb, 0xe4, 0x38, 
  0x70, 0x5e, 0x16, 0x39, 0x69, 0x65, 0x17, 0x39, 0xd7, 0xe6, 0x09, 0x39, 
  0xfc, 0x28, 0xcc, 0x38, 0xe4, 0xf7, 0x13, 0x39, 0x30, 0x67, 0x50, 0x39, 
  0x88, 0xe3, 0x17, 0x39, 0x18, 0xb0, 0x2b, 0x39, 0x11, 0x00, 0x00, 0x00, 
  0x74, 0x66, 0x6c, 0x2e, 0x70, 0x73, 0x65, 0x75, 0x64, 0x6f, 0x5f, 0x71, 
  0x63, 0x6f, 0x6e, 0x73, 0x74, 0x00, 0x00, 0x00, 0x01, 0x00, 0x00, 0x00, 
  0x09, 0x00, 0x00, 0x00, 0x12, 0xff, 0xff, 0xff, 0x00, 0x00, 0x00, 0x01, 
  0x14, 0x00, 0x00, 0x00, 0x14, 0x00, 0x00, 0x00, 0x06, 0x00, 0x00, 0x00, 
  0x00, 0x00, 0x00, 0x02, 0x1c, 0x00, 0x00, 0x00, 0xfc, 0xfe, 0xff, 0xff, 
  0x0f, 0x00, 0x00, 0x00, 0x61, 0x72, 0x69, 0x74, 0x68, 0x2e, 0x63, 0x6f, 
  0x6e, 0x73, 0x74, 0x61, 0x6e, 0x74, 0x34, 0x00, 0x01, 0x00, 0x00, 0x00, 
  0x03, 0x00, 0x00, 0x00, 0x4e, 0xff, 0xff, 0xff, 0x00, 0x00, 0x00, 0x01, 
  0x14, 0x00, 0x00, 0x00, 0x14, 0x00, 0x00, 0x00, 0x05, 0x00, 0x00, 0x00, 
  0x00, 0x00, 0x00, 0x02, 0x1c, 0x00, 0x00, 0x00, 0x38, 0xff, 0xff, 0xff, 
  0x0f, 0x00, 0x00, 0x00, 0x61, 0x72, 0x69, 0x74, 0x68, 0x2e, 0x63, 0x6f, 
  0x6e, 0x73, 0x74, 0x61, 0x6e, 0x74, 0x33, 0x00, 0x01, 0x00, 0x00, 0x00, 
  0x03, 0x00, 0x00, 0x00, 0x8a, 0xff, 0xff, 0xff, 0x00, 0x00, 0x00, 0x01, 
  0x14, 0x00, 0x00, 0x00, 0x14, 0x00, 0x00, 0x00, 0x04, 0x00, 0x00, 0x00, 
  0x00, 0x00, 0x00, 0x02, 0x1c, 0x00, 0x00, 0x00, 0x74, 0xff, 0xff, 0xff, 
  0x0f, 0x00, 0x00, 0x00, 0x61, 0x72, 0x69, 0x74, 0x68, 0x2e, 0x63, 0x6f, 
  0x6e, 0x73, 0x74, 0x61, 0x6e, 0x74, 0x32, 0x00, 0x00, 0x00, 0x00, 0x00, 
  0xc2, 0xff, 0xff, 0xff, 0x00, 0x00, 0x00, 0x01, 0x14, 0x00, 0x00, 0x00, 
  0x14, 0x00, 0x00, 0x00, 0x03, 0x00, 0x00, 0x00, 0x00, 0x00, 0x00, 0x02, 
  0x1c, 0x00, 0x00, 0x00, 0xac, 0xff, 0xff, 0xff, 0x0f, 0x00, 0x00, 0x00, 
  0x61, 0x72, 0x69, 0x74, 0x68, 0x2e, 0x63, 0x6f, 0x6e, 0x73, 0x74, 0x61, 
  0x6e, 0x74, 0x31, 0x00, 0x01, 0x00, 0x00, 0x00, 0x03, 0x00, 0x00, 0x00, 
  0x00, 0x00, 0x16, 0x00, 0x1c, 0x00, 0x18, 0x00, 0x17, 0x00, 0x10, 0x00, 
  0x0c, 0x00, 0x08, 0x00, 0x00, 0x00, 0x00, 0x00, 0x00, 0x00, 0x07, 0x00, 
  0x16, 0x00, 0x00, 0x00, 0x00, 0x00, 0x00, 0x01, 0x18, 0x00, 0x00, 0x00, 
  0x18, 0x00, 0x00, 0x00, 0x02, 0x00, 0x00, 0x00, 0x00, 0x00, 0x00, 0x02, 
  0x20, 0x00, 0x00, 0x00, 0x04, 0x00, 0x04, 0x00, 0x04, 0x00, 0x00, 0x00, 
  0x0e, 0x00, 0x00, 0x00, 0x61, 0x72, 0x69, 0x74, 0x68, 0x2e, 0x63, 0x6f, 
  0x6e, 0x73, 0x74, 0x61, 0x6e, 0x74, 0x00, 0x00, 0x00, 0x00, 0x00, 0x00, 
  0x00, 0x00, 0x16, 0x00, 0x20, 0x00, 0x1c, 0x00, 0x1b, 0x00, 0x14, 0x00, 
  0x10, 0x00, 0x0c, 0x00, 0x00, 0x00, 0x00, 0x00, 0x08, 0x00, 0x07, 0x00, 
  0x16, 0x00, 0x00, 0x00, 0x00, 0x00, 0x00, 0x01, 0x18, 0x00, 0x00, 0x00, 
  0x30, 0x00, 0x00, 0x00, 0x50, 0x00, 0x00, 0x00, 0x01, 0x00, 0x00, 0x00, 
  0x00, 0x00, 0x00, 0x09, 0x68, 0x00, 0x00, 0x00, 0x03, 0x00, 0x00, 0x00, 
  0xff, 0xff, 0xff, 0xff, 0x78, 0x00, 0x00, 0x00, 0x06, 0x00, 0x00, 0x00, 
  0x0c, 0x00, 0x0c, 0x00, 0x00, 0x00, 0x00, 0x00, 0x08, 0x00, 0x04, 0x00, 
  0x0c, 0x00, 0x00, 0x00, 0x08, 0x00, 0x00, 0x00, 0x14, 0x00, 0x00, 0x00, 
  0x01, 0x00, 0x00, 0x00, 0xed, 0xff, 0xff, 0xff, 0xff, 0xff, 0xff, 0xff, 
  0x00, 0x00, 0x00, 0x00, 0x01, 0x00, 0x00, 0x00, 0xd3, 0x73, 0xbc, 0x3d, 
  0x1d, 0x00, 0x00, 0x00, 0x73, 0x65, 0x72, 0x76, 0x69, 0x6e, 0x67, 0x5f, 
  0x64, 0x65, 0x66, 0x61, 0x75, 0x6c, 0x74, 0x5f, 0x69, 0x6e, 0x70, 0x75, 
  0x74, 0x5f, 0x6c, 0x61, 0x79, 0x65, 0x72, 0x3a, 0x30, 0x00, 0x00, 0x00, 
  0x03, 0x00, 0x00, 0x00, 0x01, 0x00, 0x00, 0x00, 0x78, 0x00, 0x00, 0x00, 
  0x06, 0x00, 0x00, 0x00, 0x07, 0x00, 0x00, 0x00, 0x90, 0x00, 0x00, 0x00, 
  0x70, 0x00, 0x00, 0x00, 0x54, 0x00, 0x00, 0x00, 0x40, 0x00, 0x00, 0x00, 
  0x2c, 0x00, 0x00, 0x00, 0x18, 0x00, 0x00, 0x00, 0x04, 0x00, 0x00, 0x00, 
  0xb4, 0xff, 0xff, 0xff, 0x19, 0x00, 0x00, 0x00, 0x02, 0x00, 0x00, 0x00, 
  0x00, 0x00, 0x00, 0x19, 0xc4, 0xff, 0xff, 0xff, 0x09, 0x00, 0x00, 0x00, 
  0x04, 0x00, 0x00, 0x00, 0x00, 0x00, 0x00, 0x09, 0xd4, 0xff, 0xff, 0xff, 
  0x28, 0x00, 0x00, 0x00, 0x02, 0x00, 0x00, 0x00, 0x00, 0x00, 0x00, 0x28, 
  0xe4, 0xff, 0xff, 0xff, 0x11, 0x00, 0x00, 0x00, 0x02, 0x00, 0x00, 0x00, 
  0x00, 0x00, 0x00, 0x11, 0xd8, 0xff, 0xff, 0xff, 0x16, 0x00, 0x00, 0x00, 
  0x00, 0x00, 0x00, 0x16, 0x0c, 0x00, 0x10, 0x00, 0x0f, 0x00, 0x00, 0x00, 
  0x08, 0x00, 0x04, 0x00, 0x0c, 0x00, 0x00, 0x00, 0x03, 0x00, 0x00, 0x00, 
  0x03, 0x00, 0x00, 0x00, 0x00, 0x00, 0x00, 0x03, 0x0c, 0x00, 0x0c, 0x00, 
  0x0b, 0x00, 0x00, 0x00, 0x00, 0x00, 0x04, 0x00, 0x0c, 0x00, 0x00, 0x00, 
  0x46, 0x00, 0x00, 0x00, 0x00, 0x00, 0x00, 0x46
};

// Gesture labels (in the order the model was trained)
const char* GESTURES[] = {
    "idle",
    "punch",
    "rotate_ccw",
    "rotate_cw",
    "shake",
    "swipe_down",
    "swipe_left",
    "swipe_right",
    "swipe_up"
};

const int NUM_GESTURES = 9;

#endif  // GESTURE_MODEL_H
